{
  "version": "1.0",
  "truncation": null,
  "padding": null,
  "added_tokens": [
    {
      "id": 0,
      "content": "[UNK]",
      "single_word": false,
      "lstrip": false,
      "rstrip": false,
      "normalized": false,
      "special": true
    },
    {
      "id": 1,
      "content": "[PAD]",
      "single_word": false,
      "lstrip": false,
      "rstrip": false,
      "normalized": false,
      "special": true
    },
    {
      "id": 2,
      "content": "[CLS]",
      "single_word": false,
      "lstrip": false,
      "rstrip": false,
      "normalized": false,
      "special": true
    },
    {
      "id": 3,
      "content": "[SEP]",
      "single_word": false,
      "lstrip": false,
      "rstrip": false,
      "normalized": false,
      "special": true
    }
  ],
  "normalizer": null,
  "pre_tokenizer": {
    "type": "Whitespace"
  },
  "post_processor": {
    "type": "TemplateProcessing",
    "single": [
      {
        "SpecialToken": {
          "id": "[CLS]",
          "type_id": 0
        }
      },
      {
        "Sequence": {
          "id": "A",
          "type_id": 0
        }
      },
      {
        "SpecialToken": {
          "id": "[SEP]",
          "type_id": 0
        }
      }
    ],
    "pair": [
      {
        "SpecialToken": {
          "id": "[CLS]",
          "type_id": 0
        }
      },
      {
        "Sequence": {
          "id": "A",
          "type_id": 0
        }
      },
      {
        "SpecialToken": {
          "id": "[SEP]",
          "type_id": 0
        }
      },
      {
        "Sequence": {
          "id": "B",
          "type_id": 1
        }
      },
      {
        "SpecialToken": {
          "id": "[SEP]",
          "type_id": 1
        }
      }
    ],
    "special_tokens": {
      "[CLS]": {
        "id": "[CLS]",
        "ids": [
          2
        ],
        "tokens": [
          "[CLS]"
        ]
      },
      "[SEP]": {
        "id": "[SEP]",
        "ids": [
          3
        ],
        "tokens": [
          "[SEP]"
        ]
      }
    }
  },
  "decoder": null,
  "model": {
    "type": "BPE",
    "dropout": null,
    "unk_token": "[UNK]",
    "continuing_subword_prefix": null,
    "end_of_word_suffix": null,
    "fuse_unk": false,
    "vocab": {
      "[UNK]": 0,
      "[PAD]": 1,
      "[CLS]": 2,
      "[SEP]": 3,
      "!": 4,
      "\"": 5,
      "#": 6,
      "$": 7,
      "%": 8,
      "&": 9,
      "'": 10,
      "(": 11,
      ")": 12,
      "*": 13,
      "+": 14,
      ",": 15,
      "-": 16,
      ".": 17,
      "/": 18,
      "0": 19,
      "1": 20,
      "2": 21,
      "3": 22,
      "4": 23,
      "5": 24,
      "6": 25,
      "7": 26,
      "8": 27,
      "9": 28,
      ":": 29,
      ";": 30,
      "<": 31,
      "=": 32,
      ">": 33,
      "?": 34,
      "@": 35,
      "A": 36,
      "B": 37,
      "C": 38,
      "D": 39,
      "E": 40,
      "F": 41,
      "G": 42,
      "H": 43,
      "I": 44,
      "J": 45,
      "K": 46,
      "L": 47,
      "M": 48,
      "N": 49,
      "O": 50,
      "P": 51,
      "Q": 52,
      "R": 53,
      "S": 54,
      "T": 55,
      "U": 56,
      "V": 57,
      "W": 58,
      "X": 59,
      "Y": 60,
      "Z": 61,
      "[": 62,
      "\\": 63,
      "]": 64,
      "_": 65,
      "`": 66,
      "a": 67,
      "b": 68,
      "c": 69,
      "d": 70,
      "e": 71,
      "f": 72,
      "g": 73,
      "h": 74,
      "i": 75,
      "j": 76,
      "k": 77,
      "l": 78,
      "m": 79,
      "n": 80,
      "o": 81,
      "p": 82,
      "q": 83,
      "r": 84,
      "s": 85,
      "t": 86,
      "u": 87,
      "v": 88,
      "w": 89,
      "x": 90,
      "y": 91,
      "z": 92,
      "~": 93,
      "¢": 94,
      "°": 95,
      "½": 96,
      "ç": 97,
      "è": 98,
      "—": 99,
      "…": 100,
      "™": 101,
      "in": 102,
      "th": 103,
      "an": 104,
      "on": 105,
      "the": 106,
      "ing": 107,
      "re": 108,
      "te": 109,
      "le": 110,
      "ar": 111,
      "is": 112,
      "of": 113,
      "er": 114,
      "la": 115,
      "ow": 116,
      "ck": 117,
      "and": 118,
      "hi": 119,
      "ra": 120,
      "ou": 121,
      "al": 122,
      "en": 123,
      "to": 124,
      "st": 125,
      "he": 126,
      "at": 127,
      "or": 128,
      "man": 129,
      "si": 130,
      "hite": 131,
      "wi": 132,
      "white": 133,
      "with": 134,
      "se": 135,
      "wo": 136,
      "bo": 137,
      "et": 138,
      "ld": 139,
      "ir": 140,
      "ch": 141,
      "es": 142,
      "all": 143,
      "ro": 144,
      "ed": 145,
      "ear": 146,
      "ri": 147,
      "lack": 148,
      "lo": 149,
      "black": 150,
      "ter": 151,
      "ba": 152,
      "it": 153,
      "de": 154,
      "ge": 155,
      "oun": 156,
      "lu": 157,
      "bu": 158,
      "ta": 159,
      "The": 160,
      "sk": 161,
      "co": 162,
      "ce": 163,
      "red": 164,
      "pla": 165,
      "ers": 166,
      "ll": 167,
      "ho": 168,
      "ad": 169,
      "li": 170,
      "gh": 171,
      "lue": 172,
      "own": 173,
      "ss": 174,
      "are": 175,
      "blue": 176,
      "gre": 177,
      "lding": 178,
      "be": 179,
      "tra": 180,
      "wa": 181,
      "ard": 182,
      "tt": 183,
      "ha": 184,
      "ve": 185,
      "ind": 186,
      "ght": 187,
      "ble": 188,
      "wear": 189,
      "gra": 190,
      "ple": 191,
      "ound": 192,
      "ur": 193,
      "pi": 194,
      "side": 195,
      "gr": 196,
      "green": 197,
      "br": 198,
      "pe": 199,
      "wearing": 200,
      "top": 201,
      "ver": 202,
      "ti": 203,
      "board": 204,
      "do": 205,
      "po": 206,
      "om": 207,
      "sh": 208,
      "fi": 209,
      "od": 210,
      "woman": 211,
      "erson": 212,
      "ts": 213,
      "tting": 214,
      "ne": 215,
      "par": 216,
      "stand": 217,
      "pa": 218,
      "gn": 219,
      "king": 220,
      "person": 221,
      "brown": 222,
      "tre": 223,
      "sign": 224,
      "ca": 225,
      "table": 226,
      "un": 227,
      "sitting": 228,
      "rt": 229,
      "llow": 230,
      "fr": 231,
      "air": 232,
      "ye": 233,
      "fe": 234,
      "shi": 235,
      "ying": 236,
      "ilding": 237,
      "ground": 238,
      "building": 239,
      "car": 240,
      "standing": 241,
      "light": 242,
      "lan": 243,
      "wind": 244,
      "ke": 245,
      "ph": 246,
      "water": 247,
      "il": 248,
      "ople": 249,
      "train": 250,
      "um": 251,
      "stre": 252,
      "cle": 253,
      "sky": 254,
      "lar": 255,
      "ont": 256,
      "wall": 257,
      "up": 258,
      "sm": 259,
      "back": 260,
      "window": 261,
      "shirt": 262,
      "street": 263,
      "has": 264,
      "grass": 265,
      "ten": 266,
      "ball": 267,
      "xt": 268,
      "yellow": 269,
      "clo": 270,
      "plan": 271,
      "people": 272,
      "wal": 273,
      "one": 274,
      "plate": 275,
      "next": 276,
      "now": 277,
      "holding": 278,
      "large": 279,
      "me": 280,
      "hand": 281,
      "room": 282,
      "wood": 283,
      "cat": 284,
      "front": 285,
      "snow": 286,
      "mo": 287,
      "two": 288,
      "for": 289,
      "dog": 290,
      "fo": 291,
      "this": 292,
      "ma": 293,
      "ink": 294,
      "out": 295,
      "bus": 296,
      "tor": 297,
      "by": 298,
      "let": 299,
      "ted": 300,
      "tree": 301,
      "small": 302,
      "ant": 303,
      "his": 304,
      "mp": 305,
      "eld": 306,
      "sur": 307,
      "tr": 308,
      "gla": 309,
      "head": 310,
      "nis": 311,
      "hee": 312,
      "bi": 313,
      "ds": 314,
      "ther": 315,
      "fl": 316,
      "raf": 317,
      "met": 318,
      "plane": 319,
      "ate": 320,
      "umb": 321,
      "gi": 322,
      "tennis": 323,
      "lou": 324,
      "ele": 325,
      "hor": 326,
      "men": 327,
      "ct": 328,
      "rid": 329,
      "surf": 330,
      "field": 331,
      "ine": 332,
      "play": 333,
      "ome": 334,
      "Two": 335,
      "ses": 336,
      "cks": 337,
      "clou": 338,
      "ure": 339,
      "cou": 340,
      "giraf": 341,
      "down": 342,
      "cy": 343,
      "ange": 344,
      "that": 345,
      "ong": 346,
      "ves": 347,
      "road": 348,
      "ach": 349,
      "col": 350,
      "base": 351,
      "bra": 352,
      "cket": 353,
      "park": 354,
      "bear": 355,
      "ga": 356,
      "skate": 357,
      "dy": 358,
      "color": 359,
      "hind": 360,
      "boy": 361,
      "pole": 362,
      "zz": 363,
      "behind": 364,
      "wooden": 365,
      "some": 366,
      "lea": 367,
      "eleph": 368,
      "cycle": 369,
      "near": 370,
      "flo": 371,
      "ski": 372,
      "ki": 373,
      "ze": 374,
      "irl": 375,
      "ark": 376,
      "ower": 377,
      "bed": 378,
      "zza": 379,
      "orange": 380,
      "door": 381,
      "che": 382,
      "part": 383,
      "dis": 384,
      "baseball": 385,
      "ben": 386,
      "go": 387,
      "fa": 388,
      "pizza": 389,
      "trees": 390,
      "clock": 391,
      "ic": 392,
      "uit": 393,
      "tain": 394,
      "girl": 395,
      "ang": 396,
      "oup": 397,
      "no": 398,
      "giraffe": 399,
      "zebra": 400,
      "der": 401,
      "skateboard": 402,
      "per": 403,
      "clouds": 404,
      "right": 405,
      "tion": 406,
      "loo": 407,
      "con": 408,
      "fen": 409,
      "sho": 410,
      "walking": 411,
      "horse": 412,
      "bir": 413,
      "walk": 414,
      "motor": 415,
      "background": 416,
      "sil": 417,
      "uck": 418,
      "hair": 419,
      "Man": 420,
      "chair": 421,
      "metal": 422,
      "boat": 423,
      "bath": 424,
      "floor": 425,
      "rel": 426,
      "hel": 427,
      "pen": 428,
      "pan": 429,
      "over": 430,
      "as": 431,
      "group": 432,
      "oung": 433,
      "row": 434,
      "elephant": 435,
      "ped": 436,
      "riding": 437,
      "fence": 438,
      "fro": 439,
      "ree": 440,
      "gray": 441,
      "sand": 442,
      "toi": 443,
      "sa": 444,
      "stri": 445,
      "cture": 446,
      "glass": 447,
      "itch": 448,
      "food": 449,
      "rella": 450,
      "bench": 451,
      "silver": 452,
      "ion": 453,
      "toilet": 454,
      "tan": 455,
      "umbrella": 456,
      "ving": 457,
      "ft": 458,
      "other": 459,
      "parked": 460,
      "ul": 461,
      "player": 462,
      "truck": 463,
      "led": 464,
      "phone": 465,
      "dark": 466,
      "White": 467,
      "grey": 468,
      "motorcycle": 469,
      "chi": 470,
      "dr": 471,
      "young": 472,
      "leg": 473,
      "shor": 474,
      "bow": 475,
      "des": 476,
      "cow": 477,
      "beach": 478,
      "under": 479,
      "playing": 480,
      "way": 481,
      "from": 482,
      "bathroom": 483,
      "long": 484,
      "atch": 485,
      "sc": 486,
      "An": 487,
      "hat": 488,
      "ap": 489,
      "lap": 490,
      "ting": 491,
      "qu": 492,
      "picture": 493,
      "looking": 494,
      "bird": 495,
      "cu": 496,
      "ction": 497,
      "ban": 498,
      "les": 499,
      "kite": 500,
      "sses": 501,
      "id": 502,
      "left": 503,
      "irt": 504,
      "suit": 505,
      "pink": 506,
      "her": 507,
      "hang": 508,
      "am": 509,
      "leaves": 510,
      "tall": 511,
      "el": 512,
      "itchen": 513,
      "cake": 514,
      "ough": 515,
      "ja": 516,
      "ating": 517,
      "comp": 518,
      "kitchen": 519,
      "open": 520,
      "glasses": 521,
      "letter": 522,
      "hoto": 523,
      "bowl": 524,
      "ru": 525,
      "ok": 526,
      "laptop": 527,
      "uter": 528,
      "heel": 529,
      "heep": 530,
      "sink": 531,
      "jacket": 532,
      "around": 533,
      "TH": 534,
      "we": 535,
      "surfboard": 536,
      "bat": 537,
      "bri": 538,
      "sidewalk": 539,
      "lit": 540,
      "di": 541,
      "iling": 542,
      "photo": 543,
      "coun": 544,
      "vi": 545,
      "hanging": 546,
      "ff": 547,
      "whi": 548,
      "read": 549,
      "sheep": 550,
      "so": 551,
      "reen": 552,
      "ref": 553,
      "pants": 554,
      "flying": 555,
      "child": 556,
      "computer": 557,
      "pie": 558,
      "ouse": 559,
      "wheel": 560,
      "This": 561,
      "Black": 562,
      "cro": 563,
      "ping": 564,
      "dirt": 565,
      "bag": 566,
      "colo": 567,
      "fic": 568,
      "ment": 569,
      "tracks": 570,
      "ni": 571,
      "colored": 572,
      "tle": 573,
      "wing": 574,
      "desk": 575,
      "sto": 576,
      "bee": 577,
      "ity": 578,
      "tail": 579,
      "banan": 580,
      "ger": 581,
      "ste": 582,
      "arm": 583,
      "line": 584,
      "ly": 585,
      "face": 586,
      "area": 587,
      "bike": 588,
      "vered": 589,
      "sta": 590,
      "orn": 591,
      "moun": 592,
      "va": 593,
      "covered": 594,
      "sun": 595,
      "counter": 596,
      "old": 597,
      "laying": 598,
      "irr": 599,
      "fire": 600,
      "paper": 601,
      "while": 602,
      "irror": 603,
      "bott": 604,
      "isbee": 605,
      "stop": 606,
      "IN": 607,
      "box": 608,
      "get": 609,
      "por": 610,
      "ull": 611,
      "numb": 612,
      "round": 613,
      "mirror": 614,
      "cross": 615,
      "airplane": 616,
      "helmet": 617,
      "lin": 618,
      "cup": 619,
      "owers": 620,
      "cean": 621,
      "lights": 622,
      "ty": 623,
      "form": 624,
      "adow": 625,
      "cur": 626,
      "Wo": 627,
      "eye": 628,
      "ocean": 629,
      "im": 630,
      "city": 631,
      "spo": 632,
      "game": 633,
      "eating": 634,
      "outside": 635,
      "je": 636,
      "dle": 637,
      "bun": 638,
      "ren": 639,
      "pain": 640,
      "key": 641,
      "clear": 642,
      "sed": 643,
      "our": 644,
      "court": 645,
      "ffic": 646,
      "hill": 647,
      "abo": 648,
      "ches": 649,
      "rough": 650,
      "above": 651,
      "flowers": 652,
      "traffic": 653,
      "veral": 654,
      "sli": 655,
      "ans": 656,
      "da": 657,
      "fla": 658,
      "pur": 659,
      "mer": 660,
      "mountain": 661,
      "ot": 662,
      "ation": 663,
      "through": 664,
      "run": 665,
      "windows": 666,
      "brick": 667,
      "piece": 668,
      "ven": 669,
      "tower": 670,
      "hy": 671,
      "imal": 672,
      "racket": 673,
      "gu": 674,
      "three": 675,
      "THE": 676,
      "couple": 677,
      "shorts": 678,
      "bottle": 679,
      "vase": 680,
      "cell": 681,
      "hydr": 682,
      "nose": 683,
      "ler": 684,
      "watch": 685,
      "book": 686,
      "ick": 687,
      "ak": 688,
      "hydrant": 689,
      "handle": 690,
      "tie": 691,
      "pair": 692,
      "tri": 693,
      "sing": 694,
      "animal": 695,
      "ces": 696,
      "tow": 697,
      "ut": 698,
      "shadow": 699,
      "cre": 700,
      "dre": 701,
      "There": 702,
      "stic": 703,
      "IS": 704,
      "big": 705,
      "wor": 706,
      "little": 707,
      "post": 708,
      "ched": 709,
      "number": 710,
      "made": 711,
      "case": 712,
      "edge": 713,
      "very": 714,
      "frisbee": 715,
      "vis": 716,
      "sha": 717,
      "shel": 718,
      "cap": 719,
      "day": 720,
      "inside": 721,
      "wave": 722,
      "tance": 723,
      "can": 724,
      "Woman": 725,
      "distance": 726,
      "shoes": 727,
      "dri": 728,
      "ub": 729,
      "bin": 730,
      "sandwi": 731,
      "Red": 732,
      "baby": 733,
      "unk": 734,
      "plastic": 735,
      "mid": 736,
      "AN": 737,
      "ew": 738,
      "refle": 739,
      "com": 740,
      "bar": 741,
      "Sm": 742,
      "couch": 743,
      "Th": 744,
      "teddy": 745,
      "short": 746,
      "sits": 747,
      "lled": 748,
      "pes": 749,
      "purple": 750,
      "their": 751,
      "snowboard": 752,
      "ful": 753,
      "mu": 754,
      "house": 755,
      "lee": 756,
      "Small": 757,
      "ist": 758,
      "rest": 759,
      "along": 760,
      "lamp": 761,
      "flower": 762,
      "neck": 763,
      "Pe": 764,
      "its": 765,
      "ps": 766,
      "sandwich": 767,
      "Three": 768,
      "off": 769,
      "cer": 770,
      "legs": 771,
      "bro": 772,
      "owing": 773,
      "able": 774,
      "ser": 775,
      "ridge": 776,
      "she": 777,
      "Green": 778,
      "trunk": 779,
      "pass": 780,
      "ning": 781,
      "parking": 782,
      "view": 783,
      "seat": 784,
      "RE": 785,
      "mou": 786,
      "into": 787,
      "ol": 788,
      "wri": 789,
      "slee": 790,
      "rol": 791,
      "skis": 792,
      "close": 793,
      "sp": 794,
      "ON": 795,
      "People": 796,
      "lot": 797,
      "rock": 798,
      "pillow": 799,
      "pro": 800,
      "uff": 801,
      "corn": 802,
      "each": 803,
      "body": 804,
      "hold": 805,
      "cabin": 806,
      "shelf": 807,
      "rail": 808,
      "veget": 809,
      "cal": 810,
      "gg": 811,
      "fruit": 812,
      "hot": 813,
      "Person": 814,
      "stick": 815,
      "keyboard": 816,
      "wine": 817,
      "bran": 818,
      "don": 819,
      "contain": 820,
      "ants": 821,
      "full": 822,
      "glo": 823,
      "Blue": 824,
      "toge": 825,
      "filled": 826,
      "lines": 827,
      "together": 828,
      "camer": 829,
      "fes": 830,
      "mouth": 831,
      "bunch": 832,
      "roof": 833,
      "tire": 834,
      "living": 835,
      "foot": 836,
      "mon": 837,
      "lady": 838,
      "camera": 839,
      "display": 840,
      "catch": 841,
      "signs": 842,
      "cabinet": 843,
      "fra": 844,
      "na": 845,
      "many": 846,
      "wet": 847,
      "cars": 848,
      "ey": 849,
      "guy": 850,
      "shoe": 851,
      "beside": 852,
      "vel": 853,
      "middle": 854,
      "being": 855,
      "bananas": 856,
      "hicle": 857,
      "bl": 858,
      "ding": 859,
      "ry": 860,
      "bicycle": 861,
      "eng": 862,
      "leaf": 863,
      "dra": 864,
      "stra": 865,
      "pre": 866,
      "giraffes": 867,
      "corner": 868,
      "ING": 869,
      "cho": 870,
      "painted": 871,
      "mpty": 872,
      "tom": 873,
      "vegetable": 874,
      "inst": 875,
      "hands": 876,
      "horses": 877,
      "cco": 878,
      "Se": 879,
      "vehicle": 880,
      "apple": 881,
      "port": 882,
      "banana": 883,
      "tele": 884,
      "ater": 885,
      "jeans": 886,
      "elephants": 887,
      "rown": 888,
      "ight": 889,
      "look": 890,
      "zebras": 891,
      "ush": 892,
      "dress": 893,
      "arge": 894,
      "chee": 895,
      "ccoli": 896,
      "bright": 897,
      "stone": 898,
      "ved": 899,
      "gold": 900,
      "cen": 901,
      "Large": 902,
      "flag": 903,
      "stuff": 904,
      "tile": 905,
      "cont": 906,
      "art": 907,
      "bel": 908,
      "offe": 909,
      "towel": 910,
      "skier": 911,
      "bot": 912,
      "track": 913,
      "cloth": 914,
      "offee": 915,
      "women": 916,
      "tur": 917,
      "cora": 918,
      "ring": 919,
      "fur": 920,
      "tton": 921,
      "aga": 922,
      "screen": 923,
      "stove": 924,
      "ue": 925,
      "logo": 926,
      "cover": 927,
      "empty": 928,
      "station": 929,
      "control": 930,
      "lug": 931,
      "gage": 932,
      "jum": 933,
      "bottom": 934,
      "ket": 935,
      "swing": 936,
      "cheese": 937,
      "set": 938,
      "broccoli": 939,
      "there": 940,
      "jet": 941,
      "against": 942,
      "ator": 943,
      "stands": 944,
      "uce": 945,
      "watching": 946,
      "rist": 947,
      "grassy": 948,
      "pot": 949,
      "several": 950,
      "coffee": 951,
      "sket": 952,
      "kni": 953,
      "pack": 954,
      "mote": 955,
      "striped": 956,
      "tray": 957,
      "oven": 958,
      "skiing": 959,
      "squ": 960,
      "eyes": 961,
      "surfer": 962,
      "buildings": 963,
      "age": 964,
      "decora": 965,
      "Brown": 966,
      "coat": 967,
      "wire": 968,
      "crete": 969,
      "kes": 970,
      "land": 971,
      "basket": 972,
      "ffe": 973,
      "section": 974,
      "button": 975,
      "stuffed": 976,
      "oth": 977,
      "across": 978,
      "ouble": 979,
      "rying": 980,
      "pr": 981,
      "ex": 982,
      "waves": 983,
      "atta": 984,
      "reflection": 985,
      "gerator": 986,
      "another": 987,
      "plant": 988,
      "slo": 989,
      "rent": 990,
      "ite": 991,
      "carrying": 992,
      "zing": 993,
      "spot": 994,
      "pat": 995,
      "luggage": 996,
      "TE": 997,
      "ous": 998,
      "suitcase": 999,
      "brush": 1000,
      "rocks": 1001,
      "remote": 1002,
      "cing": 1003,
      "cows": 1004,
      "AR": 1005,
      "four": 1006,
      "ced": 1007,
      "concrete": 1008,
      "knife": 1009,
      "spe": 1010,
      "rain": 1011,
      "ears": 1012,
      "rigerator": 1013,
      "tal": 1014,
      "doors": 1015,
      "fork": 1016,
      "fferent": 1017,
      "driving": 1018,
      "slice": 1019,
      "band": 1020,
      "male": 1021,
      "Several": 1022,
      "patch": 1023,
      "ccer": 1024,
      "refrigerator": 1025,
      "double": 1026,
      "dish": 1027,
      "Fr": 1028,
      "ceiling": 1029,
      "attached": 1030,
      "vision": 1031,
      "bridge": 1032,
      "vegetables": 1033,
      "plat": 1034,
      "grazing": 1035,
      "scen": 1036,
      "llar": 1037,
      "iss": 1038,
      "ath": 1039,
      "med": 1040,
      "different": 1041,
      "high": 1042,
      "ys": 1043,
      "taking": 1044,
      "Bo": 1045,
      "swe": 1046,
      "shin": 1047,
      "enger": 1048,
      "uts": 1049,
      "ellow": 1050,
      "wheels": 1051,
      "colorful": 1052,
      "Yellow": 1053,
      "ish": 1054,
      "writing": 1055,
      "soccer": 1056,
      "smiling": 1057,
      "tub": 1058,
      "stripes": 1059,
      "ace": 1060,
      "television": 1061,
      "van": 1062,
      "mark": 1063,
      "coo": 1064,
      "bet": 1065,
      "ima": 1066,
      "engine": 1067,
      "curtain": 1068,
      "bread": 1069,
      "slope": 1070,
      "feet": 1071,
      "tive": 1072,
      "ulti": 1073,
      "sit": 1074,
      "ken": 1075,
      "chairs": 1076,
      "stripe": 1077,
      "container": 1078,
      "ween": 1079,
      "design": 1080,
      "mic": 1081,
      "deck": 1082,
      "between": 1083,
      "inter": 1084,
      "LE": 1085,
      "ain": 1086,
      "river": 1087,
      "rack": 1088,
      "crow": 1089,
      "ber": 1090,
      "Some": 1091,
      "wrist": 1092,
      "ari": 1093,
      "passenger": 1094,
      "blan": 1095,
      "late": 1096,
      "meat": 1097,
      "letters": 1098,
      "pet": 1099,
      "carro": 1100,
      "ready": 1101,
      "ner": 1102,
      "pper": 1103,
      "ms": 1104,
      "hes": 1105,
      "scene": 1106,
      "uni": 1107,
      "thing": 1108,
      "sea": 1109,
      "dogs": 1110,
      "mouse": 1111,
      "poles": 1112,
      "sunglasses": 1113,
      "surfing": 1114,
      "running": 1115,
      "kin": 1116,
      "uring": 1117,
      "ob": 1118,
      "py": 1119,
      "birds": 1120,
      "cutting": 1121,
      "shower": 1122,
      "iting": 1123,
      "frame": 1124,
      "blanket": 1125,
      "cloudy": 1126,
      "cir": 1127,
      "crowd": 1128,
      "pad": 1129,
      "batter": 1130,
      "itor": 1131,
      "ned": 1132,
      "square": 1133,
      "image": 1134,
      "pitch": 1135,
      "cut": 1136,
      "hal": 1137,
      "ci": 1138,
      "range": 1139,
      "pped": 1140,
      "OF": 1141,
      "boats": 1142,
      "ssed": 1143,
      "these": 1144,
      "sty": 1145,
      "aning": 1146,
      "Ba": 1147,
      "surface": 1148,
      "end": 1149,
      "au": 1150,
      "ramp": 1151,
      "fri": 1152,
      "mar": 1153,
      "dough": 1154,
      "cand": 1155,
      "going": 1156,
      "fing": 1157,
      "ave": 1158,
      "cor": 1159,
      "past": 1160,
      "animals": 1161,
      "place": 1162,
      "monitor": 1163,
      "branch": 1164,
      "airport": 1165,
      "home": 1166,
      "din": 1167,
      "LA": 1168,
      "gar": 1169,
      "platform": 1170,
      "ors": 1171,
      "Pi": 1172,
      "looks": 1173,
      "during": 1174,
      "have": 1175,
      "uniform": 1176,
      "ER": 1177,
      "pile": 1178,
      "glove": 1179,
      "less": 1180,
      "doing": 1181,
      "poin": 1182,
      "bears": 1183,
      "shield": 1184,
      "chain": 1185,
      "ctri": 1186,
      "blon": 1187,
      "half": 1188,
      "roll": 1189,
      "bush": 1190,
      "runway": 1191,
      "holds": 1192,
      "lying": 1193,
      "du": 1194,
      "fore": 1195,
      "catcher": 1196,
      "growing": 1197,
      "als": 1198,
      "lid": 1199,
      "them": 1200,
      "tooth": 1201,
      "stack": 1202,
      "stat": 1203,
      "night": 1204,
      "multi": 1205,
      "prin": 1206,
      "donut": 1207,
      "waiting": 1208,
      "store": 1209,
      "skateboarder": 1210,
      "time": 1211,
      "min": 1212,
      "snowy": 1213,
      "rowave": 1214,
      "quet": 1215,
      "doughn": 1216,
      "leaning": 1217,
      "meter": 1218,
      "toma": 1219,
      "lad": 1220,
      "ones": 1221,
      "jumping": 1222,
      "cloud": 1223,
      "umbrellas": 1224,
      "who": 1225,
      "ows": 1226,
      "tomato": 1227,
      "ju": 1228,
      "talking": 1229,
      "kid": 1230,
      "nap": 1231,
      "rac": 1232,
      "swinging": 1233,
      "sauce": 1234,
      "draw": 1235,
      "microwave": 1236,
      "kne": 1237,
      "ines": 1238,
      "lock": 1239,
      "Wi": 1240,
      "like": 1241,
      "CK": 1242,
      "deo": 1243,
      "tag": 1244,
      "swi": 1245,
      "wears": 1246,
      "travel": 1247,
      "trash": 1248,
      "Gra": 1249,
      "kites": 1250,
      "toy": 1251,
      "tee": 1252,
      "coming": 1253,
      "plates": 1254,
      "hu": 1255,
      "trick": 1256,
      "ny": 1257,
      "throw": 1258,
      "mes": 1259,
      "bur": 1260,
      "bal": 1261,
      "arrow": 1262,
      "electri": 1263,
      "colate": 1264,
      "cart": 1265,
      "players": 1266,
      "tu": 1267,
      "sof": 1268,
      "video": 1269,
      "ns": 1270,
      "ice": 1271,
      "clu": 1272,
      "vari": 1273,
      "using": 1274,
      "oo": 1275,
      "su": 1276,
      "ible": 1277,
      "enclo": 1278,
      "railing": 1279,
      "backpack": 1280,
      "pers": 1281,
      "children": 1282,
      "drink": 1283,
      "pull": 1284,
      "ea": 1285,
      "herd": 1286,
      "collar": 1287,
      "boo": 1288,
      "windshield": 1289,
      "statue": 1290,
      "here": 1291,
      "mil": 1292,
      "dressed": 1293,
      "decker": 1294,
      "worn": 1295,
      "obje": 1296,
      "spoon": 1297,
      "AT": 1298,
      "surround": 1299,
      "branches": 1300,
      "sciss": 1301,
      "OW": 1302,
      "ab": 1303,
      "tank": 1304,
      "napkin": 1305,
      "chocolate": 1306,
      "visible": 1307,
      "patter": 1308,
      "paw": 1309,
      "tar": 1310,
      "Light": 1311,
      "ise": 1312,
      "bushes": 1313,
      "controller": 1314,
      "hit": 1315,
      "taken": 1316,
      "cement": 1317,
      "kno": 1318,
      "ult": 1319,
      "vement": 1320,
      "Bi": 1321,
      "stru": 1322,
      "mountains": 1323,
      "HI": 1324,
      "posing": 1325,
      "pavement": 1326,
      "ards": 1327,
      "getting": 1328,
      "lder": 1329,
      "cr": 1330,
      "shore": 1331,
      "bs": 1332,
      "Sil": 1333,
      "rear": 1334,
      "tv": 1335,
      "ral": 1336,
      "work": 1337,
      "Frisbee": 1338,
      "Wind": 1339,
      "finger": 1340,
      "ige": 1341,
      "dry": 1342,
      "cook": 1343,
      "Silver": 1344,
      "sure": 1345,
      "graph": 1346,
      "urant": 1347,
      "sleeve": 1348,
      "path": 1349,
      "shaped": 1350,
      "He": 1351,
      "word": 1352,
      "stair": 1353,
      "dock": 1354,
      "jo": 1355,
      "staurant": 1356,
      "AND": 1357,
      "gri": 1358,
      "sweater": 1359,
      "sting": 1360,
      "scissors": 1361,
      "hood": 1362,
      "racquet": 1363,
      "pire": 1364,
      "something": 1365,
      "pick": 1366,
      "motorcycles": 1367,
      "uc": 1368,
      "restaurant": 1369,
      "tten": 1370,
      "ST": 1371,
      "lots": 1372,
      "ster": 1373,
      "Part": 1374,
      "about": 1375,
      "ather": 1376,
      "shade": 1377,
      "ded": 1378,
      "closed": 1379,
      "items": 1380,
      "Wii": 1381,
      "Bu": 1382,
      "Four": 1383,
      "pple": 1384,
      "sy": 1385,
      "enclosure": 1386,
      "anges": 1387,
      "covering": 1388,
      "steel": 1389,
      "bare": 1390,
      "books": 1391,
      "planes": 1392,
      "forest": 1393,
      "plants": 1394,
      "mat": 1395,
      "pon": 1396,
      "vest": 1397,
      "rug": 1398,
      "curb": 1399,
      "crossing": 1400,
      "blonde": 1401,
      "traveling": 1402,
      "net": 1403,
      "app": 1404,
      "MAN": 1405,
      "lice": 1406,
      "photograph": 1407,
      "showing": 1408,
      "cabinets": 1409,
      "pping": 1410,
      "cream": 1411,
      "OR": 1412,
      "ety": 1413,
      "star": 1414,
      "carri": 1415,
      "sleeping": 1416,
      "smo": 1417,
      "written": 1418,
      "Si": 1419,
      "den": 1420,
      "beige": 1421,
      "leather": 1422,
      "paint": 1423,
      "cra": 1424,
      "sheet": 1425,
      "sup": 1426,
      "shing": 1427,
      "seen": 1428,
      "dirty": 1429,
      "AL": 1430,
      "says": 1431,
      "lake": 1432,
      "mi": 1433,
      "pepper": 1434,
      "bedroom": 1435,
      "rees": 1436,
      "Do": 1437,
      "neak": 1438,
      "Orange": 1439,
      "socks": 1440,
      "EN": 1441,
      "donuts": 1442,
      "cla": 1443,
      "iti": 1444,
      "topped": 1445,
      "flat": 1446,
      "sneak": 1447,
      "fauc": 1448,
      "faucet": 1449,
      "yard": 1450,
      "sel": 1451,
      "bor": 1452,
      "resting": 1453,
      "straw": 1454,
      "oranges": 1455,
      "carrots": 1456,
      "numbers": 1457,
      "clean": 1458,
      "sti": 1459,
      "stem": 1460,
      "Wood": 1461,
      "circle": 1462,
      "auti": 1463,
      "vert": 1464,
      "Ro": 1465,
      "zed": 1466,
      "him": 1467,
      "not": 1468,
      "rink": 1469,
      "boys": 1470,
      "alm": 1471,
      "outdoors": 1472,
      "fridge": 1473,
      "ges": 1474,
      "rect": 1475,
      "lettering": 1476,
      "adult": 1477,
      "center": 1478,
      "lush": 1479,
      "TV": 1480,
      "pieces": 1481,
      "trim": 1482,
      "object": 1483,
      "stain": 1484,
      "gloves": 1485,
      "Trees": 1486,
      "pulling": 1487,
      "sail": 1488,
      "zoo": 1489,
      "sofa": 1490,
      "inking": 1491,
      "name": 1492,
      "nit": 1493,
      "ching": 1494,
      "cast": 1495,
      "tiles": 1496,
      "wra": 1497,
      "autiful": 1498,
      "fli": 1499,
      "OU": 1500,
      "hole": 1501,
      "pillows": 1502,
      "doughnut": 1503,
      "holder": 1504,
      "carpet": 1505,
      "shiny": 1506,
      "RA": 1507,
      "ats": 1508,
      "Sh": 1509,
      "boots": 1510,
      "rope": 1511,
      "salad": 1512,
      "drinking": 1513,
      "few": 1514,
      "topping": 1515,
      "sted": 1516,
      "shion": 1517,
      "vy": 1518,
      "ling": 1519,
      "ming": 1520,
      "snowboarder": 1521,
      "tin": 1522,
      "thin": 1523,
      "mb": 1524,
      "cru": 1525,
      "power": 1526,
      "girls": 1527,
      "ac": 1528,
      "card": 1529,
      "ance": 1530,
      "spots": 1531,
      "cooked": 1532,
      "pitcher": 1533,
      "apples": 1534,
      "ular": 1535,
      "oulder": 1536,
      "Big": 1537,
      "walls": 1538,
      "intersection": 1539,
      "Young": 1540,
      "gate": 1541,
      "sticking": 1542,
      "various": 1543,
      "skin": 1544,
      "bol": 1545,
      "lur": 1546,
      "advert": 1547,
      "pu": 1548,
      "lined": 1549,
      "ally": 1550,
      "signal": 1551,
      "mans": 1552,
      "licen": 1553,
      "ggles": 1554,
      "cted": 1555,
      "op": 1556,
      "fre": 1557,
      "beautiful": 1558,
      "onion": 1559,
      "tato": 1560,
      "belt": 1561,
      "feed": 1562,
      "slices": 1563,
      "mac": 1564,
      "below": 1565,
      "thick": 1566,
      "Boy": 1567,
      "umpire": 1568,
      "beak": 1569,
      "skateboarding": 1570,
      "bre": 1571,
      "tiled": 1572,
      "cting": 1573,
      "ading": 1574,
      "ep": 1575,
      "palm": 1576,
      "ley": 1577,
      "prepar": 1578,
      "One": 1579,
      "police": 1580,
      "try": 1581,
      "rub": 1582,
      "sticker": 1583,
      "swim": 1584,
      "cone": 1585,
      "string": 1586,
      "outdoor": 1587,
      "older": 1588,
      "umer": 1589,
      "ie": 1590,
      "feather": 1591,
      "kids": 1592,
      "cellphone": 1593,
      "facing": 1594,
      "teeth": 1595,
      "neath": 1596,
      "wires": 1597,
      "enjo": 1598,
      "low": 1599,
      "erse": 1600,
      "mane": 1601,
      "cats": 1602,
      "ary": 1603,
      "lic": 1604,
      "potato": 1605,
      "angular": 1606,
      "goggles": 1607,
      "bottles": 1608,
      "preparing": 1609,
      "moving": 1610,
      "Many": 1611,
      "turned": 1612,
      "busy": 1613,
      "license": 1614,
      "Sk": 1615,
      "pipe": 1616,
      "phones": 1617,
      "gear": 1618,
      "framed": 1619,
      "jerse": 1620,
      "ES": 1621,
      "reading": 1622,
      "underneath": 1623,
      "headlight": 1624,
      "print": 1625,
      "mach": 1626,
      "railroad": 1627,
      "toothbrush": 1628,
      "cord": 1629,
      "meal": 1630,
      "Car": 1631,
      "mug": 1632,
      "ker": 1633,
      "cken": 1634,
      "egg": 1635,
      "jersey": 1636,
      "mounted": 1637,
      "used": 1638,
      "calm": 1639,
      "beer": 1640,
      "shown": 1641,
      "WHI": 1642,
      "skirt": 1643,
      "polar": 1644,
      "purse": 1645,
      "IR": 1646,
      "female": 1647,
      "graff": 1648,
      "Snow": 1649,
      "held": 1650,
      "bage": 1651,
      "painting": 1652,
      "blur": 1653,
      "knee": 1654,
      "link": 1655,
      "pattern": 1656,
      "len": 1657,
      "WHITE": 1658,
      "ons": 1659,
      "candle": 1660,
      "check": 1661,
      "buses": 1662,
      "tarmac": 1663,
      "dining": 1664,
      "Dark": 1665,
      "boards": 1666,
      "que": 1667,
      "sandy": 1668,
      "onto": 1669,
      "flu": 1670,
      "thday": 1671,
      "surrounded": 1672,
      "log": 1673,
      "but": 1674,
      "skiers": 1675,
      "numer": 1676,
      "plaid": 1677,
      "graffiti": 1678,
      "arms": 1679,
      "cta": 1680,
      "bikes": 1681,
      "hard": 1682,
      "fries": 1683,
      "mit": 1684,
      "ent": 1685,
      "rice": 1686,
      "Le": 1687,
      "ctor": 1688,
      "fice": 1689,
      "structure": 1690,
      "Tall": 1691,
      "wetsuit": 1692,
      "mas": 1693,
      "Re": 1694,
      "clothe": 1695,
      "throwing": 1696,
      "eds": 1697,
      "chicken": 1698,
      "hitting": 1699,
      "shoulder": 1700,
      "decorative": 1701,
      "carrot": 1702,
      "words": 1703,
      "shining": 1704,
      "ters": 1705,
      "decorated": 1706,
      "fish": 1707,
      "spa": 1708,
      "pictures": 1709,
      "enjoying": 1710,
      "fit": 1711,
      "making": 1712,
      "style": 1713,
      "fresh": 1714,
      "sunny": 1715,
      "sneakers": 1716,
      "CH": 1717,
      "sau": 1718,
      "ered": 1719,
      "ET": 1720,
      "horns": 1721,
      "wii": 1722,
      "pede": 1723,
      "skies": 1724,
      "panel": 1725,
      "Gr": 1726,
      "birthday": 1727,
      "WI": 1728,
      "towards": 1729,
      "EAR": 1730,
      "fan": 1731,
      "knob": 1732,
      "stairs": 1733,
      "Met": 1734,
      "ries": 1735,
      "Wooden": 1736,
      "office": 1737,
      "match": 1738,
      "tel": 1739,
      "ass": 1740,
      "new": 1741,
      "lace": 1742,
      "pples": 1743,
      "gravel": 1744,
      "market": 1745,
      "SI": 1746,
      "Ze": 1747,
      "Cat": 1748,
      "strap": 1749,
      "someone": 1750,
      "rides": 1751,
      "ail": 1752,
      "bb": 1753,
      "niture": 1754,
      "Girl": 1755,
      "Head": 1756,
      "Zebra": 1757,
      "Ch": 1758,
      "inds": 1759,
      "alt": 1760,
      "WO": 1761,
      "af": 1762,
      "iz": 1763,
      "hou": 1764,
      "jar": 1765,
      "ast": 1766,
      "woods": 1767,
      "furniture": 1768,
      "ip": 1769,
      "law": 1770,
      "pine": 1771,
      "tered": 1772,
      "been": 1773,
      "bricks": 1774,
      "ond": 1775,
      "Gi": 1776,
      "Hand": 1777,
      "OP": 1778,
      "AS": 1779,
      "block": 1780,
      "fruits": 1781,
      "bucket": 1782,
      "nice": 1783,
      "walkway": 1784,
      "crust": 1785,
      "curtains": 1786,
      "clothes": 1787,
      "sub": 1788,
      "bathtub": 1789,
      "kit": 1790,
      "Base": 1791,
      "saf": 1792,
      "Gray": 1793,
      "fireplace": 1794,
      "foreground": 1795,
      "eat": 1796,
      "tip": 1797,
      "tent": 1798,
      "Ele": 1799,
      "Group": 1800,
      "ated": 1801,
      "most": 1802,
      "banner": 1803,
      "cial": 1804,
      "bell": 1805,
      "ins": 1806,
      "paved": 1807,
      "ctator": 1808,
      "cli": 1809,
      "pub": 1810,
      "where": 1811,
      "carriage": 1812,
      "sliced": 1813,
      "Metal": 1814,
      "scar": 1815,
      "aching": 1816,
      "iron": 1817,
      "BO": 1818,
      "smi": 1819,
      "pel": 1820,
      "vent": 1821,
      "ffy": 1822,
      "decoration": 1823,
      "dead": 1824,
      "tes": 1825,
      "feathers": 1826,
      "frosting": 1827,
      "Dog": 1828,
      "urch": 1829,
      "cond": 1830,
      "electric": 1831,
      "ddle": 1832,
      "circu": 1833,
      "cooking": 1834,
      "oni": 1835,
      "country": 1836,
      "serving": 1837,
      "ARE": 1838,
      "hay": 1839,
      "tusk": 1840,
      "electrical": 1841,
      "lection": 1842,
      "liqu": 1843,
      "bags": 1844,
      "Shadow": 1845,
      "Stre": 1846,
      "hed": 1847,
      "was": 1848,
      "towels": 1849,
      "wild": 1850,
      "teri": 1851,
      "trains": 1852,
      "boarder": 1853,
      "kers": 1854,
      "setting": 1855,
      "ump": 1856,
      "perform": 1857,
      "public": 1858,
      "sion": 1859,
      "Giraf": 1860,
      "church": 1861,
      "Baseball": 1862,
      "fold": 1863,
      "dire": 1864,
      "spla": 1865,
      "landing": 1866,
      "pasture": 1867,
      "Water": 1868,
      "scoo": 1869,
      "rench": 1870,
      "displayed": 1871,
      "parti": 1872,
      "steps": 1873,
      "EL": 1874,
      "ies": 1875,
      "val": 1876,
      "away": 1877,
      "Street": 1878,
      "fall": 1879,
      "safety": 1880,
      "raft": 1881,
      "leafy": 1882,
      "lling": 1883,
      "smoke": 1884,
      "ican": 1885,
      "rectangular": 1886,
      "walks": 1887,
      "boxes": 1888,
      "single": 1889,
      "text": 1890,
      "stopped": 1891,
      "thered": 1892,
      "Fi": 1893,
      "Po": 1894,
      "Long": 1895,
      "label": 1896,
      "tables": 1897,
      "brace": 1898,
      "pit": 1899,
      "working": 1900,
      "scarf": 1901,
      "ward": 1902,
      "stainless": 1903,
      "tru": 1904,
      "benches": 1905,
      "ouching": 1906,
      "tensil": 1907,
      "ort": 1908,
      "direction": 1909,
      "telephone": 1910,
      "dinner": 1911,
      "fluffy": 1912,
      "trail": 1913,
      "lay": 1914,
      "drawer": 1915,
      "pocket": 1916,
      "lett": 1917,
      "buttons": 1918,
      "gon": 1919,
      "ppy": 1920,
      "mel": 1921,
      "pointing": 1922,
      "Sign": 1923,
      "ship": 1924,
      "rider": 1925,
      "Front": 1926,
      "amic": 1927,
      "Fo": 1928,
      "sian": 1929,
      "St": 1930,
      "wide": 1931,
      "roman": 1932,
      "lift": 1933,
      "turn": 1934,
      "outfit": 1935,
      "wings": 1936,
      "vers": 1937,
      "placed": 1938,
      "tch": 1939,
      "onic": 1940,
      "indi": 1941,
      "portion": 1942,
      "ird": 1943,
      "ctive": 1944,
      "cases": 1945,
      "shes": 1946,
      "stacked": 1947,
      "pt": 1948,
      "oon": 1949,
      "lettuce": 1950,
      "Pink": 1951,
      "sca": 1952,
      "Gla": 1953,
      "town": 1954,
      "team": 1955,
      "toppings": 1956,
      "duck": 1957,
      "blurry": 1958,
      "utensil": 1959,
      "ghter": 1960,
      "shop": 1961,
      "eaten": 1962,
      "aw": 1963,
      "blen": 1964,
      "liquid": 1965,
      "winter": 1966,
      "ctr": 1967,
      "ium": 1968,
      "grill": 1969,
      "advertise": 1970,
      "pony": 1971,
      "trying": 1972,
      "both": 1973,
      "xture": 1974,
      "horiz": 1975,
      "propel": 1976,
      "floral": 1977,
      "Window": 1978,
      "pul": 1979,
      "hotel": 1980,
      "curved": 1981,
      "cts": 1982,
      "fig": 1983,
      "ceramic": 1984,
      "ctronic": 1985,
      "sides": 1986,
      "sla": 1987,
      "chool": 1988,
      "bars": 1989,
      "bla": 1990,
      "pool": 1991,
      "propeller": 1992,
      "tied": 1993,
      "angle": 1994,
      "BLA": 1995,
      "tong": 1996,
      "lawn": 1997,
      "well": 1998,
      "tea": 1999,
      "sweat": 2000,
      "offic": 2001,
      "bent": 2002,
      "soap": 2003,
      "BLACK": 2004,
      "circular": 2005,
      "prote": 2006,
      "Gre": 2007,
      "Chi": 2008,
      "ripe": 2009,
      "pillar": 2010,
      "fly": 2011,
      "SH": 2012,
      "surfboards": 2013,
      "tomatoes": 2014,
      "pedestri": 2015,
      "ride": 2016,
      "spectator": 2017,
      "cakes": 2018,
      "fast": 2019,
      "golden": 2020,
      "Mo": 2021,
      "desser": 2022,
      "THIS": 2023,
      "candles": 2024,
      "WITH": 2025,
      "rubber": 2026,
      "self": 2027,
      "SU": 2028,
      "Train": 2029,
      "floating": 2030,
      "busines": 2031,
      "ired": 2032,
      "vice": 2033,
      "strip": 2034,
      "see": 2035,
      "cl": 2036,
      "posi": 2037,
      "handles": 2038,
      "wed": 2039,
      "machine": 2040,
      "rocky": 2041,
      "Grass": 2042,
      "cano": 2043,
      "space": 2044,
      "school": 2045,
      "aded": 2046,
      "electronic": 2047,
      "speak": 2048,
      "nail": 2049,
      "clothing": 2050,
      "shot": 2051,
      "ledge": 2052,
      "spread": 2053,
      "conne": 2054,
      "bene": 2055,
      "ern": 2056,
      "doll": 2057,
      "swimming": 2058,
      "urin": 2059,
      "vehicles": 2060,
      "bit": 2061,
      "doorway": 2062,
      "cock": 2063,
      "engers": 2064,
      "daytime": 2065,
      "lum": 2066,
      "Air": 2067,
      "beneath": 2068,
      "pare": 2069,
      "cushion": 2070,
      "har": 2071,
      "soup": 2072,
      "ged": 2073,
      "reflecting": 2074,
      "Picture": 2075,
      "perched": 2076,
      "blender": 2077,
      "headlights": 2078,
      "beard": 2079,
      "wrapped": 2080,
      "Co": 2081,
      "ature": 2082,
      "having": 2083,
      "break": 2084,
      "sticks": 2085,
      "spi": 2086,
      "iler": 2087,
      "ital": 2088,
      "colou": 2089,
      "hotdog": 2090,
      "ham": 2091,
      "poster": 2092,
      "mound": 2093,
      "ripples": 2094,
      "pic": 2095,
      "just": 2096,
      "haired": 2097,
      "huge": 2098,
      "stool": 2099,
      "skater": 2100,
      "tty": 2101,
      "IT": 2102,
      "ALL": 2103,
      "pulled": 2104,
      "dot": 2105,
      "tic": 2106,
      "foam": 2107,
      "Grey": 2108,
      "hillside": 2109,
      "overhead": 2110,
      "mode": 2111,
      "wash": 2112,
      "eling": 2113,
      "sprink": 2114,
      "blo": 2115,
      "No": 2116,
      "feeding": 2117,
      "RO": 2118,
      "exten": 2119,
      "they": 2120,
      "business": 2121,
      "ition": 2122,
      "shed": 2123,
      "inclu": 2124,
      "equ": 2125,
      "cking": 2126,
      "fixture": 2127,
      "De": 2128,
      "colors": 2129,
      "advertisement": 2130,
      "folded": 2131,
      "stor": 2132,
      "LO": 2133,
      "Ten": 2134,
      "sym": 2135,
      "cardboard": 2136,
      "multiple": 2137,
      "mud": 2138,
      "bric": 2139,
      "shelves": 2140,
      "jump": 2141,
      "Ski": 2142,
      "ED": 2143,
      "To": 2144,
      "far": 2145,
      "vases": 2146,
      "sock": 2147,
      "berries": 2148,
      "ised": 2149,
      "opened": 2150,
      "whis": 2151,
      "zer": 2152,
      "ristmas": 2153,
      "scooter": 2154,
      "Back": 2155,
      "doughnuts": 2156,
      "chest": 2157,
      "fabric": 2158,
      "cau": 2159,
      "ising": 2160,
      "french": 2161,
      "broken": 2162,
      "spotted": 2163,
      "human": 2164,
      "pepperoni": 2165,
      "symbol": 2166,
      "Building": 2167,
      "sill": 2168,
      "butter": 2169,
      "Hor": 2170,
      "bull": 2171,
      "shadows": 2172,
      "us": 2173,
      "seated": 2174,
      "onions": 2175,
      "inten": 2176,
      "garbage": 2177,
      "mini": 2178,
      "passengers": 2179,
      "bble": 2180,
      "cage": 2181,
      "tiny": 2182,
      "Giraffe": 2183,
      "ountain": 2184,
      "skating": 2185,
      "catching": 2186,
      "five": 2187,
      "TA": 2188,
      "ware": 2189,
      "colour": 2190,
      "mod": 2191,
      "mitt": 2192,
      "Tennis": 2193,
      "In": 2194,
      "ks": 2195,
      "ppers": 2196,
      "balcon": 2197,
      "life": 2198,
      "trucks": 2199,
      "shows": 2200,
      "bowls": 2201,
      "oli": 2202,
      "cups": 2203,
      "craft": 2204,
      "passing": 2205,
      "appli": 2206,
      "spra": 2207,
      "outlet": 2208,
      "kitten": 2209,
      "potatoes": 2210,
      "IC": 2211,
      "Windows": 2212,
      "necklace": 2213,
      "rim": 2214,
      "WEAR": 2215,
      "barri": 2216,
      "without": 2217,
      "ence": 2218,
      "pizzas": 2219,
      "tongue": 2220,
      "nic": 2221,
      "Tree": 2222,
      "lemon": 2223,
      "formation": 2224,
      "ked": 2225,
      "toas": 2226,
      "partially": 2227,
      "ilt": 2228,
      "mily": 2229,
      "WEARING": 2230,
      "guard": 2231,
      "family": 2232,
      "guys": 2233,
      "deli": 2234,
      "performing": 2235,
      "mask": 2236,
      "plain": 2237,
      "marking": 2238,
      "thumb": 2239,
      "containing": 2240,
      "blinds": 2241,
      "tops": 2242,
      "ribb": 2243,
      "ipment": 2244,
      "show": 2245,
      "Someone": 2246,
      "bracelet": 2247,
      "tage": 2248,
      "colum": 2249,
      "mother": 2250,
      "trailer": 2251,
      "brushing": 2252,
      "wat": 2253,
      "char": 2254,
      "boarding": 2255,
      "stal": 2256,
      "after": 2257,
      "mix": 2258,
      "free": 2259,
      "computers": 2260,
      "Lit": 2261,
      "gs": 2262,
      "flags": 2263,
      "wedding": 2264,
      "which": 2265,
      "arden": 2266,
      "TO": 2267,
      "tour": 2268,
      "tablecloth": 2269,
      "pier": 2270,
      "cycl": 2271,
      "equipment": 2272,
      "awning": 2273,
      "gas": 2274,
      "border": 2275,
      "sage": 2276,
      "leash": 2277,
      "Ref": 2278,
      "laptops": 2279,
      "enter": 2280,
      "rolling": 2281,
      "Eleph": 2282,
      "em": 2283,
      "berry": 2284,
      "take": 2285,
      "dessert": 2286,
      "lower": 2287,
      "reaching": 2288,
      "upside": 2289,
      "houses": 2290,
      "OL": 2291,
      "oda": 2292,
      "rome": 2293,
      "icing": 2294,
      "flip": 2295,
      "atop": 2296,
      "garden": 2297,
      "AD": 2298,
      "clocks": 2299,
      "vin": 2300,
      "RED": 2301,
      "mush": 2302,
      "drawn": 2303,
      "These": 2304,
      "goat": 2305,
      "blond": 2306,
      "appears": 2307,
      "apart": 2308,
      "ments": 2309,
      "modern": 2310,
      "touching": 2311,
      "ron": 2312,
      "boot": 2313,
      "mushroom": 2314,
      "mis": 2315,
      "lets": 2316,
      "dispen": 2317,
      "Amer": 2318,
      "tricks": 2319,
      "pretty": 2320,
      "OUN": 2321,
      "ery": 2322,
      "lane": 2323,
      "TER": 2324,
      "support": 2325,
      "leading": 2326,
      "papers": 2327,
      "race": 2328,
      "dishes": 2329,
      "ka": 2330,
      "any": 2331,
      "checkered": 2332,
      "Child": 2333,
      "ligh": 2334,
      "shape": 2335,
      "lear": 2336,
      "toddle": 2337,
      "posts": 2338,
      "PLA": 2339,
      "scra": 2340,
      "picnic": 2341,
      "Be": 2342,
      "weeds": 2343,
      "driver": 2344,
      "toddler": 2345,
      "mper": 2346,
      "juice": 2347,
      "RI": 2348,
      "balcony": 2349,
      "dro": 2350,
      "persons": 2351,
      "LU": 2352,
      "gull": 2353,
      "cable": 2354,
      "para": 2355,
      "comfor": 2356,
      "stret": 2357,
      "second": 2358,
      "intendo": 2359,
      "stall": 2360,
      "irst": 2361,
      "alone": 2362,
      "ports": 2363,
      "fenced": 2364,
      "subway": 2365,
      "toward": 2366,
      "nes": 2367,
      "aller": 2368,
      "phalt": 2369,
      "mercial": 2370,
      "highway": 2371,
      "BU": 2372,
      "snowboarding": 2373,
      "crack": 2374,
      "cones": 2375,
      "SE": 2376,
      "lain": 2377,
      "BA": 2378,
      "ung": 2379,
      "gathered": 2380,
      "motorbike": 2381,
      "fin": 2382,
      "lun": 2383,
      "soda": 2384,
      "THERE": 2385,
      "Sur": 2386,
      "others": 2387,
      "ging": 2388,
      "ances": 2389,
      "io": 2390,
      "SK": 2391,
      "paws": 2392,
      "pots": 2393,
      "cute": 2394,
      "drain": 2395,
      "deep": 2396,
      "ribbon": 2397,
      "nt": 2398,
      "constru": 2399,
      "watches": 2400,
      "igh": 2401,
      "types": 2402,
      "cattle": 2403,
      "fashion": 2404,
      "AIR": 2405,
      "sleeved": 2406,
      "cab": 2407,
      "pol": 2408,
      "sale": 2409,
      "American": 2410,
      "dresser": 2411,
      "whiskers": 2412,
      "Lo": 2413,
      "atu": 2414,
      "giant": 2415,
      "SS": 2416,
      "farm": 2417,
      "ERS": 2418,
      "wrink": 2419,
      "Ad": 2420,
      "among": 2421,
      "liner": 2422,
      "asphalt": 2423,
      "suitcases": 2424,
      "Little": 2425,
      "narrow": 2426,
      "porce": 2427,
      "bicycles": 2428,
      "cker": 2429,
      "type": 2430,
      "veg": 2431,
      "aircraft": 2432,
      "trunks": 2433,
      "diam": 2434,
      "oc": 2435,
      "umber": 2436,
      "Glass": 2437,
      "surfers": 2438,
      "device": 2439,
      "ladder": 2440,
      "burger": 2441,
      "steam": 2442,
      "chin": 2443,
      "docked": 2444,
      "fer": 2445,
      "chup": 2446,
      "tiss": 2447,
      "bank": 2448,
      "surrounding": 2449,
      "use": 2450,
      "pond": 2451,
      "Clock": 2452,
      "fingers": 2453,
      "gen": 2454,
      "reflected": 2455,
      "too": 2456,
      "keys": 2457,
      "milk": 2458,
      "must": 2459,
      "dispenser": 2460,
      "Pizza": 2461,
      "seats": 2462,
      "motion": 2463,
      "rusty": 2464,
      "speaker": 2465,
      "Right": 2466,
      "chrome": 2467,
      "itary": 2468,
      "variety": 2469,
      "vid": 2470,
      "hoodie": 2471,
      "sad": 2472,
      "elbow": 2473,
      "drinks": 2474,
      "crosswalk": 2475,
      "Left": 2476,
      "terior": 2477,
      "ness": 2478,
      "Skate": 2479,
      "porcelain": 2480,
      "commercial": 2481,
      "GE": 2482,
      "stones": 2483,
      "sized": 2484,
      "hills": 2485,
      "bul": 2486,
      "headboard": 2487,
      "ggy": 2488,
      "deser": 2489,
      "sandwiches": 2490,
      "note": 2491,
      "roller": 2492,
      "airplanes": 2493,
      "flies": 2494,
      "eggs": 2495,
      "Reflection": 2496,
      "sheets": 2497,
      "cockpit": 2498,
      "patterned": 2499,
      "peppers": 2500,
      "beds": 2501,
      "construction": 2502,
      "ering": 2503,
      "diamond": 2504,
      "trans": 2505,
      "raised": 2506,
      "marble": 2507,
      "vintage": 2508,
      "IL": 2509,
      "tical": 2510,
      "bending": 2511,
      "ever": 2512,
      "lies": 2513,
      "trance": 2514,
      "Christmas": 2515,
      "clut": 2516,
      "prof": 2517,
      "item": 2518,
      "ets": 2519,
      "smaller": 2520,
      "countertop": 2521,
      "Asian": 2522,
      "served": 2523,
      "lining": 2524,
      "chips": 2525,
      "OM": 2526,
      "Sun": 2527,
      "first": 2528,
      "ured": 2529,
      "numeral": 2530,
      "news": 2531,
      "anti": 2532,
      "ls": 2533,
      "ketchup": 2534,
      "same": 2535,
      "horizon": 2536,
      "GH": 2537,
      "bever": 2538,
      "fighter": 2539,
      "neon": 2540,
      "ney": 2541,
      "staring": 2542,
      "Photo": 2543,
      "flight": 2544,
      "sinks": 2545,
      "officer": 2546,
      "BLU": 2547,
      "bru": 2548,
      "DING": 2549,
      "tires": 2550,
      "apron": 2551,
      "rails": 2552,
      "sunlight": 2553,
      "hose": 2554,
      "spectators": 2555,
      "gged": 2556,
      "beam": 2557,
      "wagon": 2558,
      "balls": 2559,
      "Bird": 2560,
      "breakfast": 2561,
      "stream": 2562,
      "paddle": 2563,
      "arch": 2564,
      "patio": 2565,
      "mostly": 2566,
      "BLUE": 2567,
      "Clo": 2568,
      "stum": 2569,
      "nearby": 2570,
      "appliances": 2571,
      "rts": 2572,
      "containers": 2573,
      "THAT": 2574,
      "sugar": 2575,
      "serve": 2576,
      "ute": 2577,
      "drawers": 2578,
      "still": 2579,
      "Sky": 2580,
      "reads": 2581,
      "barn": 2582,
      "prepare": 2583,
      "GRE": 2584,
      "pastry": 2585,
      "war": 2586,
      "takes": 2587,
      "cooki": 2588,
      "fencing": 2589,
      "zy": 2590,
      "mustard": 2591,
      "rew": 2592,
      "island": 2593,
      "pane": 2594,
      "platter": 2595,
      "shopping": 2596,
      "plu": 2597,
      "seagull": 2598,
      "veggi": 2599,
      "Pa": 2600,
      "garage": 2601,
      "putting": 2602,
      "ession": 2603,
      "bou": 2604,
      "gl": 2605,
      "pedestrian": 2606,
      "heart": 2607,
      "earring": 2608,
      "Motor": 2609,
      "connected": 2610,
      "Traf": 2611,
      "tw": 2612,
      "barrier": 2613,
      "Cars": 2614,
      "Traffic": 2615,
      "Old": 2616,
      "allic": 2617,
      "tax": 2618,
      "brand": 2619,
      "flooring": 2620,
      "printed": 2621,
      "overcast": 2622,
      "kneeling": 2623,
      "military": 2624,
      "shar": 2625,
      "Food": 2626,
      "extended": 2627,
      "rose": 2628,
      "lumin": 2629,
      "entrance": 2630,
      "costum": 2631,
      "indo": 2632,
      "horn": 2633,
      "layer": 2634,
      "Men": 2635,
      "baked": 2636,
      "hook": 2637,
      "Bri": 2638,
      "fun": 2639,
      "desktop": 2640,
      "BLE": 2641,
      "hoof": 2642,
      "floors": 2643,
      "Clear": 2644,
      "chim": 2645,
      "Bright": 2646,
      "ists": 2647,
      "lone": 2648,
      "six": 2649,
      "arched": 2650,
      "ends": 2651,
      "ties": 2652,
      "pointed": 2653,
      "hirt": 2654,
      "maroon": 2655,
      "bacon": 2656,
      "Nintendo": 2657,
      "urinal": 2658,
      "pin": 2659,
      "sweatshirt": 2660,
      "Horse": 2661,
      "En": 2662,
      "Lea": 2663,
      "cious": 2664,
      "spray": 2665,
      "utensils": 2666,
      "fashioned": 2667,
      "dge": 2668,
      "essional": 2669,
      "lamb": 2670,
      "model": 2671,
      "DE": 2672,
      "opening": 2673,
      "straight": 2674,
      "rou": 2675,
      "canopy": 2676,
      "cargo": 2677,
      "make": 2678,
      "aking": 2679,
      "vegetation": 2680,
      "sausage": 2681,
      "crashing": 2682,
      "falling": 2683,
      "beans": 2684,
      "ian": 2685,
      "position": 2686,
      "eyeglasses": 2687,
      "res": 2688,
      "tilit": 2689,
      "skateboards": 2690,
      "curled": 2691,
      "bald": 2692,
      "figure": 2693,
      "sn": 2694,
      "sprinkles": 2695,
      "furry": 2696,
      "Sand": 2697,
      "curly": 2698,
      "teen": 2699,
      "CE": 2700,
      "forward": 2701,
      "drive": 2702,
      "mobi": 2703,
      "pres": 2704,
      "fried": 2705,
      "visor": 2706,
      "pow": 2707,
      "tape": 2708,
      "scape": 2709,
      "scul": 2710,
      "PE": 2711,
      "Top": 2712,
      "pasta": 2713,
      "good": 2714,
      "numerals": 2715,
      "comforter": 2716,
      "upper": 2717,
      "ornate": 2718,
      "clay": 2719,
      "tility": 2720,
      "smile": 2721,
      "marks": 2722,
      "pointy": 2723,
      "Round": 2724,
      "ane": 2725,
      "metallic": 2726,
      "TS": 2727,
      "nel": 2728,
      "soft": 2729,
      "washer": 2730,
      "Multi": 2731,
      "allen": 2732,
      "tissue": 2733,
      "bill": 2734,
      "OWN": 2735,
      "gging": 2736,
      "OUND": 2737,
      "gaz": 2738,
      "antique": 2739,
      "Elephant": 2740,
      "glazed": 2741,
      "roadway": 2742,
      "story": 2743,
      "pture": 2744,
      "newspaper": 2745,
      "restroom": 2746,
      "switch": 2747,
      "heads": 2748,
      "Pur": 2749,
      "WA": 2750,
      "pup": 2751,
      "sunset": 2752,
      "crowded": 2753,
      "uitar": 2754,
      "sandals": 2755,
      "Com": 2756,
      "foil": 2757,
      "HAS": 2758,
      "event": 2759,
      "rang": 2760,
      "sw": 2761,
      "allow": 2762,
      "knobs": 2763,
      "including": 2764,
      "unch": 2765,
      "zi": 2766,
      "ette": 2767,
      "games": 2768,
      "prints": 2769,
      "Clou": 2770,
      "cess": 2771,
      "nood": 2772,
      "whole": 2773,
      "desert": 2774,
      "plays": 2775,
      "Dirt": 2776,
      "La": 2777,
      "multicolored": 2778,
      "pickup": 2779,
      "TRA": 2780,
      "magn": 2781,
      "speed": 2782,
      "tool": 2783,
      "orted": 2784,
      "Ben": 2785,
      "magaz": 2786,
      "laces": 2787,
      "chef": 2788,
      "potted": 2789,
      "controllers": 2790,
      "WOMAN": 2791,
      "athle": 2792,
      "headband": 2793,
      "splash": 2794,
      "pads": 2795,
      "Five": 2796,
      "sports": 2797,
      "cation": 2798,
      "kha": 2799,
      "only": 2800,
      "evergreen": 2801,
      "wooded": 2802,
      "LOW": 2803,
      "Ti": 2804,
      "wards": 2805,
      "tat": 2806,
      "paras": 2807,
      "micro": 2808,
      "VE": 2809,
      "guitar": 2810,
      "taxi": 2811,
      "og": 2812,
      "stad": 2813,
      "LI": 2814,
      "size": 2815,
      "liage": 2816,
      "things": 2817,
      "sneaker": 2818,
      "column": 2819,
      "porting": 2820,
      "lightly": 2821,
      "toaster": 2822,
      "sculpture": 2823,
      "Tan": 2824,
      "fancy": 2825,
      "tusks": 2826,
      "SUV": 2827,
      "bumper": 2828,
      "foods": 2829,
      "lls": 2830,
      "ARD": 2831,
      "stuck": 2832,
      "kick": 2833,
      "ways": 2834,
      "Side": 2835,
      "owl": 2836,
      "stu": 2837,
      "illumin": 2838,
      "step": 2839,
      "beverage": 2840,
      "pose": 2841,
      "tran": 2842,
      "Bus": 2843,
      "mobile": 2844,
      "tress": 2845,
      "shirts": 2846,
      "Pie": 2847,
      "RT": 2848,
      "Sheep": 2849,
      "GR": 2850,
      "ky": 2851,
      "holes": 2852,
      "dig": 2853,
      "Purple": 2854,
      "ial": 2855,
      "disc": 2856,
      "appro": 2857,
      "lamps": 2858,
      "objects": 2859,
      "cyclist": 2860,
      "utility": 2861,
      "ady": 2862,
      "stadium": 2863,
      "push": 2864,
      "lunch": 2865,
      "Plate": 2866,
      "dots": 2867,
      "chimney": 2868,
      "Lights": 2869,
      "fallen": 2870,
      "professional": 2871,
      "skinny": 2872,
      "bolt": 2873,
      "Sta": 2874,
      "gan": 2875,
      "lays": 2876,
      "foliage": 2877,
      "eled": 2878,
      "DO": 2879,
      "alongside": 2880,
      "Wa": 2881,
      "you": 2882,
      "Con": 2883,
      "does": 2884,
      "wristband": 2885,
      "temp": 2886,
      "rot": 2887,
      "xing": 2888,
      "arrang": 2889,
      "poses": 2890,
      "advertising": 2891,
      "missing": 2892,
      "Ban": 2893,
      "BR": 2894,
      "built": 2895,
      "happy": 2896,
      "melted": 2897,
      "GREEN": 2898,
      "Gu": 2899,
      "lighting": 2900,
      "sliding": 2901,
      "Bear": 2902,
      "saddle": 2903,
      "vanity": 2904,
      "what": 2905,
      "Pla": 2906,
      "bean": 2907,
      "ttle": 2908,
      "company": 2909,
      "rainbow": 2910,
      "screw": 2911,
      "comm": 2912,
      "Col": 2913,
      "rela": 2914,
      "apartment": 2915,
      "Tra": 2916,
      "ust": 2917,
      "flock": 2918,
      "patches": 2919,
      "Mountain": 2920,
      "dies": 2921,
      "level": 2922,
      "designs": 2923,
      "brushes": 2924,
      "gun": 2925,
      "rod": 2926,
      "smooth": 2927,
      "lips": 2928,
      "hardwood": 2929,
      "hangs": 2930,
      "fu": 2931,
      "wicker": 2932,
      "TT": 2933,
      "KING": 2934,
      "fake": 2935,
      "overlooking": 2936,
      "ults": 2937,
      "smiles": 2938,
      "PAR": 2939,
      "dless": 2940,
      "We": 2941,
      "railway": 2942,
      "racing": 2943,
      "batting": 2944,
      "Gold": 2945,
      "dug": 2946,
      "Par": 2947,
      "ponytail": 2948,
      "prepares": 2949,
      "Wall": 2950,
      "waters": 2951,
      "gather": 2952,
      "rage": 2953,
      "hing": 2954,
      "neat": 2955,
      "rusted": 2956,
      "khaki": 2957,
      "knit": 2958,
      "hea": 2959,
      "eple": 2960,
      "decorations": 2961,
      "ades": 2962,
      "drawing": 2963,
      "splashing": 2964,
      "markings": 2965,
      "tattoo": 2966,
      "ents": 2967,
      "landscape": 2968,
      "claw": 2969,
      "lly": 2970,
      "hats": 2971,
      "spin": 2972,
      "Motorcycle": 2973,
      "Ve": 2974,
      "kind": 2975,
      "planter": 2976,
      "arranged": 2977,
      "BE": 2978,
      "muff": 2979,
      "cher": 2980,
      "rubs": 2981,
      "turning": 2982,
      "ign": 2983,
      "termin": 2984,
      "cupcake": 2985,
      "costume": 2986,
      "fully": 2987,
      "SHI": 2988,
      "stretched": 2989,
      "ier": 2990,
      "separ": 2991,
      "smart": 2992,
      "more": 2993,
      "navy": 2994,
      "blade": 2995,
      "cluttered": 2996,
      "crate": 2997,
      "grap": 2998,
      "grown": 2999,
      "bby": 3000,
      "loading": 3001,
      "before": 3002,
      "She": 3003,
      "motive": 3004,
      "frosted": 3005,
      "suits": 3006,
      "calf": 3007,
      "ortment": 3008,
      "groom": 3009,
      "amer": 3010,
      "steeple": 3011,
      "Tail": 3012,
      "womans": 3013,
      "weather": 3014,
      "dried": 3015,
      "sic": 3016,
      "polka": 3017,
      "Ce": 3018,
      "Open": 3019,
      "OD": 3020,
      "party": 3021,
      "veggies": 3022,
      "pale": 3023,
      "harbor": 3024,
      "noodles": 3025,
      "digital": 3026,
      "Ri": 3027,
      "TI": 3028,
      "thy": 3029,
      "Wheel": 3030,
      "microphone": 3031,
      "thouse": 3032,
      "shut": 3033,
      "headphones": 3034,
      "rows": 3035,
      "tube": 3036,
      "siden": 3037,
      "gro": 3038,
      "my": 3039,
      "crossed": 3040,
      "Ear": 3041,
      "ano": 3042,
      "IND": 3043,
      "oval": 3044,
      "stroller": 3045,
      "iden": 3046,
      "saucer": 3047,
      "PERS": 3048,
      "toys": 3049,
      "Ca": 3050,
      "giving": 3051,
      "delicious": 3052,
      "pant": 3053,
      "spen": 3054,
      "radi": 3055,
      "folding": 3056,
      "stickers": 3057,
      "mattress": 3058,
      "illuminated": 3059,
      "covers": 3060,
      "piled": 3061,
      "Ma": 3062,
      "bite": 3063,
      "swings": 3064,
      "couches": 3065,
      "assorted": 3066,
      "comotive": 3067,
      "stries": 3068,
      "figur": 3069,
      "freezer": 3070,
      "transit": 3071,
      "slightly": 3072,
      "TABLE": 3073,
      "monitors": 3074,
      "knees": 3075,
      "puff": 3076,
      "belly": 3077,
      "crumb": 3078,
      "mushrooms": 3079,
      "puppy": 3080,
      "aches": 3081,
      "vertical": 3082,
      "ladies": 3083,
      "sets": 3084,
      "rolled": 3085,
      "messy": 3086,
      "twi": 3087,
      "lage": 3088,
      "alk": 3089,
      "compet": 3090,
      "Apple": 3091,
      "anda": 3092,
      "posed": 3093,
      "Pair": 3094,
      "bas": 3095,
      "photographer": 3096,
      "olive": 3097,
      "storage": 3098,
      "rolley": 3099,
      "cent": 3100,
      "Ar": 3101,
      "bikin": 3102,
      "jumps": 3103,
      "PH": 3104,
      "prod": 3105,
      "hazy": 3106,
      "GHT": 3107,
      "CAR": 3108,
      "Number": 3109,
      "Table": 3110,
      "Door": 3111,
      "VER": 3112,
      "oves": 3113,
      "cowboy": 3114,
      "Book": 3115,
      "sna": 3116,
      "tro": 3117,
      "sailboat": 3118,
      "ues": 3119,
      "pige": 3120,
      "photos": 3121,
      "terminal": 3122,
      "produce": 3123,
      "..": 3124,
      "Bro": 3125,
      "cop": 3126,
      "PERSON": 3127,
      "ame": 3128,
      "eyebr": 3129,
      "GN": 3130,
      "det": 3131,
      "inese": 3132,
      "toilets": 3133,
      "stache": 3134,
      "drives": 3135,
      "candy": 3136,
      "cil": 3137,
      "ase": 3138,
      "xed": 3139,
      "semi": 3140,
      "larger": 3141,
      "oned": 3142,
      "locomotive": 3143,
      "ado": 3144,
      "til": 3145,
      "feeder": 3146,
      "protective": 3147,
      "ana": 3148,
      "zipper": 3149,
      "Color": 3150,
      "Vari": 3151,
      "Fl": 3152,
      "pastries": 3153,
      "Toi": 3154,
      "wool": 3155,
      "porch": 3156,
      "ike": 3157,
      "Baby": 3158,
      "PA": 3159,
      "eats": 3160,
      "paste": 3161,
      "BOARD": 3162,
      "HE": 3163,
      "salt": 3164,
      "ducks": 3165,
      "directions": 3166,
      "focu": 3167,
      "trolley": 3168,
      "rackets": 3169,
      "basketball": 3170,
      "suspen": 3171,
      "So": 3172,
      "Fla": 3173,
      "Stop": 3174,
      "cuc": 3175,
      "cooler": 3176,
      "ef": 3177,
      "meters": 3178,
      "BROWN": 3179,
      "barrel": 3180,
      "Guy": 3181,
      "SHIRT": 3182,
      "OT": 3183,
      "kettle": 3184,
      "bikini": 3185,
      "bunches": 3186,
      "dishwasher": 3187,
      "GRA": 3188,
      "hall": 3189,
      "tun": 3190,
      "Toilet": 3191,
      "strings": 3192,
      "Patch": 3193,
      "toast": 3194,
      "bey": 3195,
      "ank": 3196,
      "posite": 3197,
      "seas": 3198,
      "brightly": 3199,
      "dugout": 3200,
      "assortment": 3201,
      "grapes": 3202,
      "shrubs": 3203,
      "mirrors": 3204,
      "action": 3205,
      "pushing": 3206,
      "stun": 3207,
      "medium": 3208,
      "pedestrians": 3209,
      "YING": 3210,
      "jets": 3211,
      "For": 3212,
      "lli": 3213,
      "follow": 3214,
      "himself": 3215,
      "fry": 3216,
      "cliff": 3217,
      "bbles": 3218,
      "athletic": 3219,
      "Don": 3220,
      "petting": 3221,
      "strawberries": 3222,
      "ug": 3223,
      "wiper": 3224,
      "shades": 3225,
      "ished": 3226,
      "materi": 3227,
      "triangle": 3228,
      "audi": 3229,
      "TWO": 3230,
      "attemp": 3231,
      "adults": 3232,
      "blem": 3233,
      "skinned": 3234,
      "snout": 3235,
      "Empty": 3236,
      "hung": 3237,
      "roses": 3238,
      "rests": 3239,
      "shirtless": 3240,
      "Nose": 3241,
      "ages": 3242,
      "gy": 3243,
      "pri": 3244,
      "pans": 3245,
      "jean": 3246,
      "Airplane": 3247,
      "greens": 3248,
      "tarp": 3249,
      "opposite": 3250,
      "tial": 3251,
      "straps": 3252,
      "chopped": 3253,
      "mbing": 3254,
      "Colorful": 3255,
      "aret": 3256,
      "charac": 3257,
      "cluster": 3258,
      "Flowers": 3259,
      "nightstand": 3260,
      "goats": 3261,
      "muddy": 3262,
      "Shor": 3263,
      "lders": 3264,
      "ontal": 3265,
      "bride": 3266,
      "wipers": 3267,
      "posted": 3268,
      "12": 3269,
      "Plane": 3270,
      "cked": 3271,
      "faces": 3272,
      "supporting": 3273,
      "olives": 3274,
      "Fence": 3275,
      "ay": 3276,
      "garet": 3277,
      "mbs": 3278,
      "magazine": 3279,
      "KE": 3280,
      "peel": 3281,
      "lighthouse": 3282,
      "commuter": 3283,
      "beyond": 3284,
      "tern": 3285,
      "bleach": 3286,
      "feature": 3287,
      "GROUND": 3288,
      "love": 3289,
      "Ex": 3290,
      "His": 3291,
      "ose": 3292,
      "pump": 3293,
      "booth": 3294,
      "loaded": 3295,
      "moped": 3296,
      "shaker": 3297,
      "SIDE": 3298,
      "shallow": 3299,
      "friends": 3300,
      "Piece": 3301,
      "TRE": 3302,
      "main": 3303,
      "cloudless": 3304,
      "stems": 3305,
      "fountain": 3306,
      "ads": 3307,
      "crane": 3308,
      "parrot": 3309,
      "engines": 3310,
      "grilled": 3311,
      "bouquet": 3312,
      "ckey": 3313,
      "zzle": 3314,
      "nostri": 3315,
      "glowing": 3316,
      "sharp": 3317,
      "denim": 3318,
      "Nike": 3319,
      "cords": 3320,
      "displaying": 3321,
      "RU": 3322,
      "residen": 3323,
      "hooves": 3324,
      "cour": 3325,
      "prac": 3326,
      "kicking": 3327,
      "dryer": 3328,
      "cold": 3329,
      "gran": 3330,
      "bookshelf": 3331,
      "ders": 3332,
      "interior": 3333,
      "menu": 3334,
      "sole": 3335,
      "SIGN": 3336,
      "plug": 3337,
      "sleeves": 3338,
      "tori": 3339,
      "urban": 3340,
      "contains": 3341,
      "chalk": 3342,
      "Lady": 3343,
      "ily": 3344,
      "rust": 3345,
      "wrapper": 3346,
      "FF": 3347,
      "ancing": 3348,
      "tractor": 3349,
      "reflective": 3350,
      "blowing": 3351,
      "heavy": 3352,
      "Various": 3353,
      "It": 3354,
      "real": 3355,
      "Fire": 3356,
      "mixed": 3357,
      "panda": 3358,
      "Bunch": 3359,
      "cated": 3360,
      "practi": 3361,
      "10": 3362,
      "hic": 3363,
      "crou": 3364,
      "makes": 3365,
      "wake": 3366,
      "pickle": 3367,
      "ual": 3368,
      "fris": 3369,
      "hour": 3370,
      "dist": 3371,
      "warning": 3372,
      "Kite": 3373,
      "cupboard": 3374,
      "cigaret": 3375,
      "reline": 3376,
      "rolls": 3377,
      "goal": 3378,
      "Clouds": 3379,
      "20": 3380,
      "lime": 3381,
      "strawberry": 3382,
      "distant": 3383,
      "cating": 3384,
      "emblem": 3385,
      "lip": 3386,
      "riders": 3387,
      "baskets": 3388,
      "point": 3389,
      "lon": 3390,
      "gets": 3391,
      "logs": 3392,
      "caution": 3393,
      "graze": 3394,
      "condi": 3395,
      "comple": 3396,
      "Zebras": 3397,
      "puffy": 3398,
      "dome": 3399,
      "warm": 3400,
      "elder": 3401,
      "Let": 3402,
      "collection": 3403,
      "Plan": 3404,
      "ners": 3405,
      "bedspread": 3406,
      "urinals": 3407,
      "parade": 3408,
      "umin": 3409,
      "graphic": 3410,
      "sailing": 3411,
      "information": 3412,
      "pared": 3413,
      "shoreline": 3414,
      "if": 3415,
      "moss": 3416,
      "ispy": 3417,
      "alumin": 3418,
      "zzy": 3419,
      "harness": 3420,
      "spinach": 3421,
      "unit": 3422,
      "pipes": 3423,
      "stomach": 3424,
      "stage": 3425,
      "controls": 3426,
      "scat": 3427,
      "TU": 3428,
      "dered": 3429,
      "Cow": 3430,
      "Ho": 3431,
      "than": 3432,
      "trimmed": 3433,
      "entertain": 3434,
      "puddle": 3435,
      "Buildings": 3436,
      "Skateboard": 3437,
      "streets": 3438,
      "fishing": 3439,
      "indicating": 3440,
      "laid": 3441,
      "balloon": 3442,
      "bark": 3443,
      "ina": 3444,
      "cleats": 3445,
      "beef": 3446,
      "eli": 3447,
      "pour": 3448,
      "ugh": 3449,
      "trays": 3450,
      "slat": 3451,
      "cri": 3452,
      "ings": 3453,
      "TTING": 3454,
      "Cows": 3455,
      "Di": 3456,
      "Player": 3457,
      "peeled": 3458,
      "Animal": 3459,
      "supp": 3460,
      "BACK": 3461,
      "basin": 3462,
      "uniforms": 3463,
      "kept": 3464,
      "son": 3465,
      "peak": 3466,
      "curi": 3467,
      "squat": 3468,
      "On": 3469,
      "Ste": 3470,
      "ried": 3471,
      "bleachers": 3472,
      "Eye": 3473,
      "course": 3474,
      "SM": 3475,
      "ument": 3476,
      "mesh": 3477,
      "elderly": 3478,
      "Bir": 3479,
      "STOP": 3480,
      "Surf": 3481,
      "packed": 3482,
      "Close": 3483,
      "zen": 3484,
      "napkins": 3485,
      "horizontal": 3486,
      "cookie": 3487,
      "aluminum": 3488,
      "YEL": 3489,
      "ahead": 3490,
      "bly": 3491,
      "haust": 3492,
      "Section": 3493,
      "Skier": 3494,
      "mple": 3495,
      "silhou": 3496,
      "drop": 3497,
      "also": 3498,
      "mustache": 3499,
      "remotes": 3500,
      "features": 3501,
      "UM": 3502,
      "burnt": 3503,
      "rectangle": 3504,
      "audience": 3505,
      "US": 3506,
      "system": 3507,
      "steering": 3508,
      "STRE": 3509,
      "CA": 3510,
      "cans": 3511,
      "kinds": 3512,
      "waist": 3513,
      "billboard": 3514,
      "personal": 3515,
      "Handle": 3516,
      "heal": 3517,
      "itself": 3518,
      "goes": 3519,
      "stoplight": 3520,
      "YELLOW": 3521,
      "almost": 3522,
      "brake": 3523,
      "skiis": 3524,
      "orna": 3525,
      "TEN": 3526,
      "scattered": 3527,
      "waits": 3528,
      "gue": 3529,
      "spatu": 3530,
      "sort": 3531,
      "baking": 3532,
      "lif": 3533,
      "grate": 3534,
      "marker": 3535,
      "Leg": 3536,
      "Vi": 3537,
      "laugh": 3538,
      "inder": 3539,
      "piano": 3540,
      "STREET": 3541,
      "Cho": 3542,
      "Ja": 3543,
      "hone": 3544,
      "condition": 3545,
      "washing": 3546,
      "approaching": 3547,
      "oil": 3548,
      "Leaves": 3549,
      "american": 3550,
      "sni": 3551,
      "blocks": 3552,
      "Surfer": 3553,
      "spatula": 3554,
      "Her": 3555,
      "PI": 3556,
      "TOP": 3557,
      "grain": 3558,
      "notebook": 3559,
      "Plastic": 3560,
      "Lap": 3561,
      "Pass": 3562,
      "prepared": 3563,
      "pee": 3564,
      "tents": 3565,
      "Electri": 3566,
      "Lamp": 3567,
      "Flo": 3568,
      "inte": 3569,
      "shine": 3570,
      "Road": 3571,
      "plugged": 3572,
      "indoor": 3573,
      "dd": 3574,
      "sive": 3575,
      "Short": 3576,
      "polo": 3577,
      "ag": 3578,
      "need": 3579,
      "backwards": 3580,
      "sold": 3581,
      "runs": 3582,
      "crouching": 3583,
      "indica": 3584,
      "fil": 3585,
      "material": 3586,
      "nuts": 3587,
      "package": 3588,
      "worker": 3589,
      "tight": 3590,
      "rece": 3591,
      "arrange": 3592,
      "STAND": 3593,
      "castle": 3594,
      "ASE": 3595,
      "PO": 3596,
      "Wor": 3597,
      "Ted": 3598,
      "Multiple": 3599,
      "rof": 3600,
      "site": 3601,
      "fat": 3602,
      "INK": 3603,
      "Rocks": 3604,
      "Bat": 3605,
      "tifi": 3606,
      "OPLE": 3607,
      "WIND": 3608,
      "forehead": 3609,
      "ounge": 3610,
      "gie": 3611,
      "silverware": 3612,
      "snowboards": 3613,
      "PEOPLE": 3614,
      "vo": 3615,
      "rainy": 3616,
      "toasted": 3617,
      "entertainment": 3618,
      "Sli": 3619,
      "Brick": 3620,
      "staircase": 3621,
      "located": 3622,
      "belong": 3623,
      "trave": 3624,
      "caps": 3625,
      "lighted": 3626,
      "granite": 3627,
      "Teddy": 3628,
      "hibit": 3629,
      "figurine": 3630,
      "anta": 3631,
      "teal": 3632,
      "os": 3633,
      "anten": 3634,
      "maker": 3635,
      "blurred": 3636,
      "neatly": 3637,
      "zes": 3638,
      "fie": 3639,
      "downhill": 3640,
      "Li": 3641,
      "andeli": 3642,
      "seum": 3643,
      "driveway": 3644,
      "rounded": 3645,
      "gin": 3646,
      "flore": 3647,
      "ei": 3648,
      "bathing": 3649,
      "museum": 3650,
      "exhaust": 3651,
      "SITTING": 3652,
      "focus": 3653,
      "Bath": 3654,
      "LAN": 3655,
      "nam": 3656,
      "hol": 3657,
      "Laptop": 3658,
      "stump": 3659,
      "weed": 3660,
      "nails": 3661,
      "cigarette": 3662,
      "iled": 3663,
      "relaxing": 3664,
      "tunnel": 3665,
      "Bot": 3666,
      "Hot": 3667,
      "shrub": 3668,
      "Sho": 3669,
      "even": 3670,
      "toon": 3671,
      "tshirt": 3672,
      "eleva": 3673,
      "exhibit": 3674,
      "Mountains": 3675,
      "Bottom": 3676,
      "ouch": 3677,
      "flow": 3678,
      "umbers": 3679,
      "frames": 3680,
      "HAND": 3681,
      "whee": 3682,
      "gundy": 3683,
      "sal": 3684,
      "third": 3685,
      "pod": 3686,
      "rural": 3687,
      "enclosed": 3688,
      "individ": 3689,
      "slats": 3690,
      "chop": 3691,
      "bushy": 3692,
      "fuzzy": 3693,
      "sport": 3694,
      "buff": 3695,
      "waving": 3696,
      "helmets": 3697,
      "burner": 3698,
      "pedestal": 3699,
      "healthy": 3700,
      "Roman": 3701,
      "gentle": 3702,
      "tabby": 3703,
      "pencil": 3704,
      "steak": 3705,
      "produ": 3706,
      "Fe": 3707,
      "ized": 3708,
      "designed": 3709,
      "Very": 3710,
      "wh": 3711,
      "redi": 3712,
      "mail": 3713,
      "iced": 3714,
      "chunk": 3715,
      "upright": 3716,
      "CLE": 3717,
      "Stri": 3718,
      "coach": 3719,
      "great": 3720,
      "shou": 3721,
      "conve": 3722,
      "aked": 3723,
      "cupcakes": 3724,
      "leafless": 3725,
      "rings": 3726,
      "WOOD": 3727,
      "residential": 3728,
      "either": 3729,
      "Thi": 3730,
      "pict": 3731,
      "partment": 3732,
      "claws": 3733,
      "ONE": 3734,
      "Boat": 3735,
      "Bottle": 3736,
      "arrangement": 3737,
      "gth": 3738,
      "oper": 3739,
      "monkey": 3740,
      "tags": 3741,
      "leans": 3742,
      "FR": 3743,
      "GLA": 3744,
      "ash": 3745,
      "asian": 3746,
      "organ": 3747,
      "stunt": 3748,
      "Cur": 3749,
      "capped": 3750,
      "Chair": 3751,
      "pitching": 3752,
      "sniff": 3753,
      "HOL": 3754,
      "Ra": 3755,
      "vie": 3756,
      "canoe": 3757,
      "crouched": 3758,
      "fans": 3759,
      "web": 3760,
      "cade": 3761,
      "chili": 3762,
      "bunk": 3763,
      "closet": 3764,
      "melon": 3765,
      "SN": 3766,
      "int": 3767,
      "toothbrushes": 3768,
      "pouring": 3769,
      "may": 3770,
      "atural": 3771,
      "brid": 3772,
      "uses": 3773,
      "rate": 3774,
      "ssing": 3775,
      "steep": 3776,
      "catchers": 3777,
      "cyclists": 3778,
      "football": 3779,
      "panels": 3780,
      "columns": 3781,
      "solid": 3782,
      "aer": 3783,
      "mantle": 3784,
      "wavy": 3785,
      "FOR": 3786,
      "meadow": 3787,
      "WATER": 3788,
      "Mirror": 3789,
      "put": 3790,
      "GLASS": 3791,
      "AM": 3792,
      "CO": 3793,
      "cookies": 3794,
      "suspended": 3795,
      "ATE": 3796,
      "boulder": 3797,
      "nut": 3798,
      "jockey": 3799,
      "selfie": 3800,
      "wrinkles": 3801,
      "DOG": 3802,
      "muffin": 3803,
      "faded": 3804,
      "ripple": 3805,
      "plank": 3806,
      "flops": 3807,
      "cleaning": 3808,
      "Can": 3809,
      "selling": 3810,
      "blankets": 3811,
      "pathway": 3812,
      "class": 3813,
      "includes": 3814,
      "Glasses": 3815,
      "PLATE": 3816,
      "convey": 3817,
      "vor": 3818,
      "clip": 3819,
      "electronics": 3820,
      "indoors": 3821,
      "cherry": 3822,
      "ris": 3823,
      "vol": 3824,
      "cafe": 3825,
      "quo": 3826,
      "biker": 3827,
      "pens": 3828,
      "length": 3829,
      "lf": 3830,
      "rimp": 3831,
      "brass": 3832,
      "father": 3833,
      "exit": 3834,
      "how": 3835,
      "ram": 3836,
      "saying": 3837,
      "Giraffes": 3838,
      "PU": 3839,
      "blou": 3840,
      "quilt": 3841,
      "nike": 3842,
      "hamburger": 3843,
      "Adult": 3844,
      "supplies": 3845,
      "aged": 3846,
      "dest": 3847,
      "direct": 3848,
      "blades": 3849,
      "Spe": 3850,
      "hairy": 3851,
      "cables": 3852,
      "cot": 3853,
      "magnets": 3854,
      "dor": 3855,
      "cobble": 3856,
      "bulb": 3857,
      "ill": 3858,
      "thrown": 3859,
      "beanie": 3860,
      "season": 3861,
      "pictured": 3862,
      "necktie": 3863,
      "slopes": 3864,
      "stars": 3865,
      "blouse": 3866,
      "Double": 3867,
      "suv": 3868,
      "carries": 3869,
      "climbing": 3870,
      "hinge": 3871,
      "WINDOW": 3872,
      "antenna": 3873,
      "BALL": 3874,
      "plush": 3875,
      "ingredi": 3876,
      "skyscra": 3877,
      "speck": 3878,
      "knot": 3879,
      "matching": 3880,
      "Row": 3881,
      "lounge": 3882,
      "tablet": 3883,
      "flown": 3884,
      "padd": 3885,
      "identifi": 3886,
      "alley": 3887,
      "partly": 3888,
      "stained": 3889,
      "bloom": 3890,
      "Comp": 3891,
      "Broccoli": 3892,
      "divid": 3893,
      "oons": 3894,
      "pulls": 3895,
      "Bicycle": 3896,
      "GIR": 3897,
      "Rear": 3898,
      "price": 3899,
      "habit": 3900,
      "Bathroom": 3901,
      "Catch": 3902,
      "edges": 3903,
      "buck": 3904,
      "parach": 3905,
      "miniature": 3906,
      "laughing": 3907,
      "rand": 3908,
      "skateboarders": 3909,
      "breaking": 3910,
      "ROOM": 3911,
      "Computer": 3912,
      "UP": 3913,
      "cons": 3914,
      "clump": 3915,
      "access": 3916,
      "squatting": 3917,
      "aqu": 3918,
      "placemat": 3919,
      "kitty": 3920,
      "transport": 3921,
      "Paper": 3922,
      "View": 3923,
      "GIRL": 3924,
      "Chee": 3925,
      "wait": 3926,
      "casting": 3927,
      "cartoon": 3928,
      "stripped": 3929,
      "broco": 3930,
      "propped": 3931,
      "Foot": 3932,
      "gle": 3933,
      "natural": 3934,
      "slan": 3935,
      "omen": 3936,
      "horseback": 3937,
      "petal": 3938,
      "burgundy": 3939,
      "Kitchen": 3940,
      "PLAN": 3941,
      "lator": 3942,
      "grape": 3943,
      "officers": 3944,
      "crumbs": 3945,
      "hallway": 3946,
      "silhouette": 3947,
      "Women": 3948,
      "airliner": 3949,
      "homemade": 3950,
      "following": 3951,
      "STANDING": 3952,
      "Tr": 3953,
      "BI": 3954,
      "spar": 3955,
      "anas": 3956,
      "ical": 3957,
      "BUS": 3958,
      "frisbe": 3959,
      "flush": 3960,
      "arti": 3961,
      "leep": 3962,
      "Rock": 3963,
      "attempting": 3964,
      "alle": 3965,
      "grasses": 3966,
      "curve": 3967,
      "knives": 3968,
      "trashcan": 3969,
      "TURE": 3970,
      "robe": 3971,
      "mast": 3972,
      "carton": 3973,
      "HOLDING": 3974,
      "quoise": 3975,
      "ouser": 3976,
      "baggage": 3977,
      "ankle": 3978,
      "Te": 3979,
      "bris": 3980,
      "skiier": 3981,
      "asleep": 3982,
      "images": 3983,
      "jug": 3984,
      "Children": 3985,
      "WAL": 3986,
      "blind": 3987,
      "Cha": 3988,
      "Out": 3989,
      "skyline": 3990,
      "CKET": 3991,
      "ton": 3992,
      "state": 3993,
      "cele": 3994,
      "trouser": 3995,
      "turkey": 3996,
      "Decora": 3997,
      "Cro": 3998,
      "New": 3999,
      "PIC": 4000,
      "loung": 4001,
      "mur": 4002,
      "triangular": 4003,
      "dust": 4004,
      "parent": 4005,
      "Lots": 4006,
      "ars": 4007,
      "entry": 4008,
      "headed": 4009,
      "Six": 4010,
      "Or": 4011,
      "facial": 4012,
      "overpass": 4013,
      "condiments": 4014,
      "habitat": 4015,
      "Lon": 4016,
      "flap": 4017,
      "toothpaste": 4018,
      "Chinese": 4019,
      "greenery": 4020,
      "ices": 4021,
      "wrap": 4022,
      "Cup": 4023,
      "yak": 4024,
      "seeds": 4025,
      "watering": 4026,
      "proje": 4027,
      "slab": 4028,
      "LIGHT": 4029,
      "GRASS": 4030,
      "Birds": 4031,
      "Sc": 4032,
      "cool": 4033,
      "sideways": 4034,
      "throws": 4035,
      "cucumber": 4036,
      "FI": 4037,
      "cles": 4038,
      "pancakes": 4039,
      "choppy": 4040,
      "auto": 4041,
      "Catcher": 4042,
      "seven": 4043,
      "tools": 4044,
      "complete": 4045,
      "Day": 4046,
      "peach": 4047,
      "shrimp": 4048,
      "brief": 4049,
      "snowboarders": 4050,
      "hotdogs": 4051,
      "iny": 4052,
      "shred": 4053,
      "footprints": 4054,
      "Box": 4055,
      "ination": 4056,
      "reddish": 4057,
      "appear": 4058,
      "Uni": 4059,
      "terrain": 4060,
      "amoun": 4061,
      "artwork": 4062,
      "fixtures": 4063,
      "Skateboarder": 4064,
      "Hel": 4065,
      "NIS": 4066,
      "bay": 4067,
      "streetlight": 4068,
      "draped": 4069,
      "squares": 4070,
      "speakers": 4071,
      "Bananas": 4072,
      "Ne": 4073,
      "spire": 4074,
      "carts": 4075,
      "dim": 4076,
      "balancing": 4077,
      "barefoot": 4078,
      "BOY": 4079,
      "Elephants": 4080,
      "Cheese": 4081,
      "Squ": 4082,
      "outh": 4083,
      "otto": 4084,
      "TRAIN": 4085,
      "eyebrow": 4086,
      "crown": 4087,
      "balloons": 4088,
      "handbag": 4089,
      "clas": 4090,
      "Pole": 4091,
      "ornament": 4092,
      "CLO": 4093,
      "bound": 4094,
      "christmas": 4095,
      "motorcyclist": 4096,
      "reflector": 4097,
      "ooking": 4098,
      "TENNIS": 4099,
      "tails": 4100,
      "smoking": 4101,
      "Wheels": 4102,
      "elevated": 4103,
      "Thick": 4104,
      "alf": 4105,
      "seating": 4106,
      "statues": 4107,
      "mbrella": 4108,
      "\".": 4109,
      "BY": 4110,
      "aster": 4111,
      "strial": 4112,
      "rubbery": 4113,
      "Sandwi": 4114,
      "dden": 4115,
      "raw": 4116,
      "atten": 4117,
      "lope": 4118,
      "SKI": 4119,
      "shoulders": 4120,
      "Park": 4121,
      "dump": 4122,
      "cotton": 4123,
      "scent": 4124,
      "competition": 4125,
      "practicing": 4126,
      "Un": 4127,
      "fed": 4128,
      "cel": 4129,
      "limb": 4130,
      "backs": 4131,
      "anger": 4132,
      "cub": 4133,
      "lemons": 4134,
      "murky": 4135,
      "MET": 4136,
      "Umbrella": 4137,
      "racks": 4138,
      "gathering": 4139,
      "London": 4140,
      "Tow": 4141,
      "biting": 4142,
      "handi": 4143,
      "roadside": 4144,
      "series": 4145,
      "Fre": 4146,
      "every": 4147,
      "divi": 4148,
      "arrows": 4149,
      "wrinkled": 4150,
      "HEAD": 4151,
      "Cou": 4152,
      "dia": 4153,
      "marked": 4154,
      "celebra": 4155,
      "LAR": 4156,
      "tiv": 4157,
      "tening": 4158,
      "outstretched": 4159,
      "minute": 4160,
      "twin": 4161,
      "pigeon": 4162,
      "SMALL": 4163,
      "PICTURE": 4164,
      "COL": 4165,
      "Pain": 4166,
      "tish": 4167,
      "esca": 4168,
      "indu": 4169,
      "odd": 4170,
      "flood": 4171,
      "turquoise": 4172,
      "present": 4173,
      "nostril": 4174,
      "mom": 4175,
      "za": 4176,
      "rec": 4177,
      "siting": 4178,
      "waste": 4179,
      "signals": 4180,
      "service": 4181,
      "magnet": 4182,
      "City": 4183,
      "CAT": 4184,
      "gli": 4185,
      "shelter": 4186,
      "Horses": 4187,
      "ID": 4188,
      "feat": 4189,
      "soil": 4190,
      "ingredients": 4191,
      "Power": 4192,
      "decor": 4193,
      "passes": 4194,
      "Concrete": 4195,
      "WALL": 4196,
      "pear": 4197,
      "closeup": 4198,
      "petals": 4199,
      "lifted": 4200,
      "chandeli": 4201,
      "heading": 4202,
      "blow": 4203,
      "tagon": 4204,
      "sual": 4205,
      "Bench": 4206,
      "hun": 4207,
      "pea": 4208,
      "jeep": 4209,
      "handlebars": 4210,
      "Thin": 4211,
      "foreign": 4212,
      "ottoman": 4213,
      "11": 4214,
      "athered": 4215,
      "cyl": 4216,
      "circles": 4217,
      "sniffing": 4218,
      "NE": 4219,
      "deer": 4220,
      "cereal": 4221,
      "hooded": 4222,
      "tinted": 4223,
      "Stuff": 4224,
      "Batter": 4225,
      "SNOW": 4226,
      "ran": 4227,
      "pical": 4228,
      "peeling": 4229,
      "tips": 4230,
      "leaving": 4231,
      "helping": 4232,
      "custo": 4233,
      "cupboards": 4234,
      "scale": 4235,
      "Passenger": 4236,
      "amount": 4237,
      "ia": 4238,
      "woo": 4239,
      "liflower": 4240,
      "bookcase": 4241,
      "ANT": 4242,
      "Police": 4243,
      "Ripples": 4244,
      "industrial": 4245,
      "featuring": 4246,
      "vil": 4247,
      "pilot": 4248,
      "Fruit": 4249,
      "rought": 4250,
      "buo": 4251,
      "map": 4252,
      "bats": 4253,
      "spital": 4254,
      "pillars": 4255,
      "Ground": 4256,
      "lean": 4257,
      "hidden": 4258,
      "goose": 4259,
      "spokes": 4260,
      "resort": 4261,
      "workers": 4262,
      "Beige": 4263,
      "BUIL": 4264,
      "heli": 4265,
      "eting": 4266,
      "lighter": 4267,
      "wallpaper": 4268,
      "males": 4269,
      "frican": 4270,
      "marina": 4271,
      "travels": 4272,
      "Waves": 4273,
      "hiding": 4274,
      "chains": 4275,
      "valley": 4276,
      "Parking": 4277,
      "BUILDING": 4278,
      "golf": 4279,
      "grocer": 4280,
      "Bar": 4281,
      "Hat": 4282,
      "HOR": 4283,
      "ino": 4284,
      "alco": 4285,
      "eagle": 4286,
      "Dis": 4287,
      "Half": 4288,
      "jackets": 4289,
      "dash": 4290,
      "ONT": 4291,
      "destination": 4292,
      "emer": 4293,
      "trough": 4294,
      "panes": 4295,
      "lers": 4296,
      "split": 4297,
      "oked": 4298,
      "sweet": 4299,
      "spraying": 4300,
      "PART": 4301,
      "oam": 4302,
      "pebbles": 4303,
      "shrubbery": 4304,
      "pag": 4305,
      "camp": 4306,
      "sedan": 4307,
      "forks": 4308,
      "ister": 4309,
      "loaf": 4310,
      "pop": 4311,
      "hanger": 4312,
      "checking": 4313,
      "hedge": 4314,
      "SUR": 4315,
      "radio": 4316,
      "TREE": 4317,
      "rofoam": 4318,
      "travelling": 4319,
      "buggy": 4320,
      "barbed": 4321,
      "storm": 4322,
      "stalk": 4323,
      "Sti": 4324,
      "ile": 4325,
      "ids": 4326,
      "tasty": 4327,
      "carved": 4328,
      "balance": 4329,
      "archway": 4330,
      "refe": 4331,
      "INE": 4332,
      "copter": 4333,
      "slanted": 4334,
      "sparse": 4335,
      "chandelier": 4336,
      "mall": 4337,
      "grow": 4338,
      "brary": 4339,
      "parachute": 4340,
      "lens": 4341,
      "alarm": 4342,
      "licking": 4343,
      "strips": 4344,
      "forefront": 4345,
      "curity": 4346,
      "flowered": 4347,
      "Spectator": 4348,
      "FO": 4349,
      "Go": 4350,
      "sco": 4351,
      "stance": 4352,
      "console": 4353,
      "butterfly": 4354,
      "separate": 4355,
      "UMB": 4356,
      "00": 4357,
      "Wine": 4358,
      "mble": 4359,
      "rise": 4360,
      "cracks": 4361,
      "bagel": 4362,
      "powder": 4363,
      "identification": 4364,
      "Square": 4365,
      "Home": 4366,
      "Trun": 4367,
      "fender": 4368,
      "qui": 4369,
      "freshly": 4370,
      "All": 4371,
      "UN": 4372,
      "av": 4373,
      "hut": 4374,
      "vet": 4375,
      "stare": 4376,
      "baker": 4377,
      "langu": 4378,
      "OUT": 4379,
      "decal": 4380,
      "seems": 4381,
      "dotted": 4382,
      "Vehicle": 4383,
      "Rail": 4384,
      "dar": 4385,
      "hospital": 4386,
      "brist": 4387,
      "printer": 4388,
      "TED": 4389,
      "swan": 4390,
      "snack": 4391,
      "brocolli": 4392,
      "French": 4393,
      "rup": 4394,
      "crest": 4395,
      "directional": 4396,
      "COM": 4397,
      "ELE": 4398,
      "pal": 4399,
      "hits": 4400,
      "illa": 4401,
      "Pillow": 4402,
      "sleeveless": 4403,
      "Shadows": 4404,
      "PLANE": 4405,
      "attire": 4406,
      "tery": 4407,
      "Gravel": 4408,
      "cauliflower": 4409,
      "finished": 4410,
      "character": 4411,
      "ede": 4412,
      "cola": 4413,
      "ighbor": 4414,
      "Mar": 4415,
      "really": 4416,
      "bam": 4417,
      "gaze": 4418,
      "vanna": 4419,
      "beams": 4420,
      "shutters": 4421,
      "conveyor": 4422,
      "buckle": 4423,
      "Looking": 4424,
      "ien": 4425,
      "plaque": 4426,
      "pled": 4427,
      "pig": 4428,
      "garnis": 4429,
      "kis": 4430,
      "asing": 4431,
      "stocking": 4432,
      "jelly": 4433,
      "railings": 4434,
      "radiator": 4435,
      "BRA": 4436,
      "eight": 4437,
      "lis": 4438,
      "mpire": 4439,
      "lambs": 4440,
      "reflections": 4441,
      "Windshield": 4442,
      "evening": 4443,
      "divider": 4444,
      "Stuffed": 4445,
      "bamboo": 4446,
      "Face": 4447,
      "tches": 4448,
      "peas": 4449,
      "fog": 4450,
      "hugging": 4451,
      "desserts": 4452,
      "octagon": 4453,
      "shredded": 4454,
      "Graf": 4455,
      "roo": 4456,
      "fight": 4457,
      "debris": 4458,
      "pies": 4459,
      "fixed": 4460,
      "typing": 4461,
      "globe": 4462,
      "Veget": 4463,
      "Male": 4464,
      "Floor": 4465,
      "depi": 4466,
      "disk": 4467,
      "closest": 4468,
      "displays": 4469,
      "bandana": 4470,
      "Coffee": 4471,
      "talks": 4472,
      "tti": 4473,
      "bron": 4474,
      "pean": 4475,
      "spoons": 4476,
      "appliance": 4477,
      "Fresh": 4478,
      "socket": 4479,
      "cents": 4480,
      "belongs": 4481,
      "Umpire": 4482,
      "angled": 4483,
      "jetliner": 4484,
      "LET": 4485,
      "cushions": 4486,
      "GI": 4487,
      "lead": 4488,
      "glare": 4489,
      "canal": 4490,
      "Sunglasses": 4491,
      "Truck": 4492,
      "hip": 4493,
      "chan": 4494,
      "skull": 4495,
      "library": 4496,
      "owner": 4497,
      "neighbor": 4498,
      "performs": 4499,
      "ostri": 4500,
      "grand": 4501,
      "parts": 4502,
      "individual": 4503,
      "Trunk": 4504,
      "bristles": 4505,
      "Bed": 4506,
      "Kni": 4507,
      "wrought": 4508,
      "gravy": 4509,
      "frying": 4510,
      "pairs": 4511,
      "boogie": 4512,
      "cabbage": 4513,
      "Cake": 4514,
      "pumpkin": 4515,
      "fle": 4516,
      "ole": 4517,
      "outfield": 4518,
      "cuff": 4519,
      "pickles": 4520,
      "breast": 4521,
      "foamy": 4522,
      "Logo": 4523,
      "Chain": 4524,
      "DER": 4525,
      "PAIR": 4526,
      "win": 4527,
      "kee": 4528,
      "watermelon": 4529,
      "floppy": 4530,
      "music": 4531,
      "parasail": 4532,
      "carry": 4533,
      "pedal": 4534,
      "server": 4535,
      "jars": 4536,
      "studen": 4537,
      "order": 4538,
      "chasing": 4539,
      "barren": 4540,
      "cutter": 4541,
      "picking": 4542,
      "bolts": 4543,
      "SKY": 4544,
      "helicopter": 4545,
      "SURF": 4546,
      "Key": 4547,
      "gall": 4548,
      "bili": 4549,
      "stacks": 4550,
      "buns": 4551,
      "friend": 4552,
      "ocado": 4553,
      "WOODEN": 4554,
      "Sandwich": 4555,
      "come": 4556,
      "arena": 4557,
      "paja": 4558,
      "moon": 4559,
      "bandoned": 4560,
      "HIS": 4561,
      "Stra": 4562,
      "vine": 4563,
      "shu": 4564,
      "umpled": 4565,
      "portable": 4566,
      "compartment": 4567,
      "stairway": 4568,
      "Towel": 4569,
      "ore": 4570,
      "seed": 4571,
      "They": 4572,
      "moves": 4573,
      "flowing": 4574,
      "colla": 4575,
      "gentleman": 4576,
      "FRONT": 4577,
      "Couple": 4578,
      "Sa": 4579,
      "Stain": 4580,
      "Slice": 4581,
      "iers": 4582,
      "nequ": 4583,
      "counters": 4584,
      "portra": 4585,
      "points": 4586,
      "syrup": 4587,
      "stir": 4588,
      "keep": 4589,
      "freight": 4590,
      "SKATE": 4591,
      "CD": 4592,
      "Over": 4593,
      "skil": 4594,
      "windowsill": 4595,
      "downtown": 4596,
      "sheeps": 4597,
      "strapped": 4598,
      "stretching": 4599,
      "Surfboard": 4600,
      "midair": 4601,
      "delivery": 4602,
      "Helmet": 4603,
      "ense": 4604,
      "unmade": 4605,
      "monument": 4606,
      "stools": 4607,
      "blood": 4608,
      "Smo": 4609,
      "Wri": 4610,
      "dition": 4611,
      "cham": 4612,
      "leave": 4613,
      "Cell": 4614,
      "MEN": 4615,
      "slot": 4616,
      "toes": 4617,
      "woven": 4618,
      "iding": 4619,
      "idas": 4620,
      "rystal": 4621,
      "Boats": 4622,
      "policeman": 4623,
      "pigeons": 4624,
      "peeking": 4625,
      "Bare": 4626,
      "ox": 4627,
      "rots": 4628,
      "cleat": 4629,
      "nother": 4630,
      "forming": 4631,
      "swir": 4632,
      "scissor": 4633,
      "grip": 4634,
      "bbing": 4635,
      "Hair": 4636,
      "ager": 4637,
      "towers": 4638,
      "route": 4639,
      "goods": 4640,
      "kickstand": 4641,
      "Decorative": 4642,
      "tivity": 4643,
      "collared": 4644,
      "security": 4645,
      "fron": 4646,
      "exterior": 4647,
      "borne": 4648,
      "seagulls": 4649,
      "tilted": 4650,
      "bronze": 4651,
      "Flower": 4652,
      "bies": 4653,
      "rowing": 4654,
      "stains": 4655,
      "powdered": 4656,
      "hum": 4657,
      "iP": 4658,
      "oar": 4659,
      "heat": 4660,
      "nest": 4661,
      "packet": 4662,
      "bracket": 4663,
      "netting": 4664,
      "crib": 4665,
      "paddling": 4666,
      "ela": 4667,
      "reaches": 4668,
      "hear": 4669,
      "besides": 4670,
      "cate": 4671,
      "carried": 4672,
      "Stone": 4673,
      "Chocolate": 4674,
      "vory": 4675,
      "LARGE": 4676,
      "grocery": 4677,
      "Spectators": 4678,
      "Another": 4679,
      "Bowl": 4680,
      "MA": 4681,
      "ild": 4682,
      "say": 4683,
      "Bushes": 4684,
      "earrings": 4685,
      "briefcase": 4686,
      "TRU": 4687,
      "fiti": 4688,
      "mir": 4689,
      "vices": 4690,
      "condu": 4691,
      "savanna": 4692,
      "pineapple": 4693,
      "PLAY": 4694,
      "skyscraper": 4695,
      "abandoned": 4696,
      "ray": 4697,
      "lie": 4698,
      "foggy": 4699,
      "underside": 4700,
      "carrier": 4701,
      "Advert": 4702,
      "twigs": 4703,
      "BACKGROUND": 4704,
      "accessor": 4705,
      "Bur": 4706,
      "Shirt": 4707,
      "fair": 4708,
      "load": 4709,
      "frisbees": 4710,
      "inner": 4711,
      "wilder": 4712,
      "someones": 4713,
      "caught": 4714,
      "gency": 4715,
      "Line": 4716,
      "jam": 4717,
      "lion": 4718,
      "boardwalk": 4719,
      "bib": 4720,
      "dressing": 4721,
      "rimmed": 4722,
      "lounging": 4723,
      "50": 4724,
      "DY": 4725,
      "lla": 4726,
      "sum": 4727,
      "vas": 4728,
      "inding": 4729,
      "dusty": 4730,
      "funny": 4731,
      "avocado": 4732,
      "cha": 4733,
      "peace": 4734,
      "page": 4735,
      "handled": 4736,
      "busses": 4737,
      "shaking": 4738,
      "lampshade": 4739,
      "Eng": 4740,
      "eyebrows": 4741,
      "infla": 4742,
      "bump": 4743,
      "grout": 4744,
      "sandwhich": 4745,
      "dium": 4746,
      "aqua": 4747,
      "NO": 4748,
      "coast": 4749,
      "airline": 4750,
      "nicely": 4751,
      "Trash": 4752,
      "volley": 4753,
      "Writing": 4754,
      "mannequ": 4755,
      "chewing": 4756,
      "anging": 4757,
      "propellers": 4758,
      "sharing": 4759,
      "detail": 4760,
      "characters": 4761,
      "Che": 4762,
      "ared": 4763,
      "dum": 4764,
      "butt": 4765,
      "uncooked": 4766,
      "formal": 4767,
      "process": 4768,
      "CHAIR": 4769,
      "layers": 4770,
      "portrait": 4771,
      "AP": 4772,
      "pay": 4773,
      "airborne": 4774,
      "league": 4775,
      "runner": 4776,
      "rocking": 4777,
      "vane": 4778,
      "crates": 4779,
      "Roof": 4780,
      "Books": 4781,
      "conditioner": 4782,
      "bridle": 4783,
      "bis": 4784,
      "care": 4785,
      "siding": 4786,
      "move": 4787,
      "stable": 4788,
      "slide": 4789,
      "sails": 4790,
      "CU": 4791,
      "army": 4792,
      "capital": 4793,
      "press": 4794,
      "cheek": 4795,
      "spices": 4796,
      "softball": 4797,
      "Bal": 4798,
      "Blon": 4799,
      "BASE": 4800,
      "HAT": 4801,
      "Mac": 4802,
      "ico": 4803,
      "convers": 4804,
      "sandal": 4805,
      "partial": 4806,
      "SHO": 4807,
      "Graffiti": 4808,
      "MP": 4809,
      "mers": 4810,
      "aring": 4811,
      "notes": 4812,
      "muzzle": 4813,
      "accents": 4814,
      "Legs": 4815,
      "pagne": 4816,
      "skillet": 4817,
      "date": 4818,
      "ption": 4819,
      "tap": 4820,
      "checked": 4821,
      "Stack": 4822,
      "chopsticks": 4823,
      "Canad": 4824,
      "buoy": 4825,
      "bakery": 4826,
      "neighborhood": 4827,
      "Blonde": 4828,
      "19": 4829,
      "BEAR": 4830,
      "blu": 4831,
      "haw": 4832,
      "exposed": 4833,
      "PLAYING": 4834,
      "ssi": 4835,
      "tuck": 4836,
      "return": 4837,
      "piles": 4838,
      "shaggy": 4839,
      "obsta": 4840,
      "mixer": 4841,
      "Fork": 4842,
      "ational": 4843,
      "drapes": 4844,
      "furnis": 4845,
      "United": 4846,
      "SA": 4847,
      "rong": 4848,
      "tof": 4849,
      "ropes": 4850,
      "adju": 4851,
      "ables": 4852,
      "language": 4853,
      "shuttle": 4854,
      ".\"": 4855,
      "Lug": 4856,
      "crystal": 4857,
      "tter": 4858,
      "coin": 4859,
      "waterway": 4860,
      "wallet": 4861,
      "bedside": 4862,
      "ZE": 4863,
      "isher": 4864,
      "chinese": 4865,
      "median": 4866,
      "African": 4867,
      "JA": 4868,
      "grabbing": 4869,
      "planks": 4870,
      "catches": 4871,
      "darker": 4872,
      "drying": 4873,
      "CKS": 4874,
      "connecting": 4875,
      "ostrich": 4876,
      "basil": 4877,
      "shaded": 4878,
      "tains": 4879,
      "THER": 4880,
      "Tracks": 4881,
      "Knife": 4882,
      "drum": 4883,
      "Snowboarder": 4884,
      "Blur": 4885,
      "backyard": 4886,
      "mate": 4887,
      "courtyard": 4888,
      "unique": 4889,
      "burners": 4890,
      "ungle": 4891,
      "amongst": 4892,
      "wilderness": 4893,
      "House": 4894,
      "sat": 4895,
      "sor": 4896,
      "rabb": 4897,
      "backdrop": 4898,
      "herself": 4899,
      "patterns": 4900,
      "twig": 4901,
      "Ball": 4902,
      "BRI": 4903,
      "LL": 4904,
      "Older": 4905,
      "touch": 4906,
      "simple": 4907,
      "pact": 4908,
      "unripe": 4909,
      "played": 4910,
      "playground": 4911,
      "cuts": 4912,
      "pster": 4913,
      "circus": 4914,
      "buffet": 4915,
      "Lic": 4916,
      "PAN": 4917,
      "onlook": 4918,
      "toe": 4919,
      "picket": 4920,
      "fixing": 4921,
      "carpe": 4922,
      "upon": 4923,
      "pengu": 4924,
      "heels": 4925,
      "stabili": 4926,
      "cruise": 4927,
      "kayak": 4928,
      "parasol": 4929,
      "Flag": 4930,
      "FFE": 4931,
      "HORSE": 4932,
      "ditional": 4933,
      "cree": 4934,
      "garlic": 4935,
      "ELD": 4936,
      "cobblestone": 4937,
      "champagne": 4938,
      "ME": 4939,
      "wispy": 4940,
      "packs": 4941,
      "wireless": 4942,
      "dusk": 4943,
      "tilla": 4944,
      "Electrical": 4945,
      "floret": 4946,
      "score": 4947,
      "conductor": 4948,
      "Des": 4949,
      "Santa": 4950,
      "YCLE": 4951,
      "call": 4952,
      "icy": 4953,
      "wn": 4954,
      "wax": 4955,
      "float": 4956,
      "Smiling": 4957,
      "instru": 4958,
      "pottery": 4959,
      "Bike": 4960,
      "teams": 4961,
      "Soccer": 4962,
      "fighting": 4963,
      "ACH": 4964,
      "Pede": 4965,
      "Wet": 4966,
      "podium": 4967,
      "glaze": 4968,
      "shapes": 4969,
      "observing": 4970,
      "British": 4971,
      "organized": 4972,
      "EP": 4973,
      "Sto": 4974,
      "ghe": 4975,
      "jungle": 4976,
      "nintendo": 4977,
      "ora": 4978,
      "gest": 4979,
      "haul": 4980,
      "oney": 4981,
      "ffle": 4982,
      "bund": 4983,
      "cane": 4984,
      "canvas": 4985,
      "comb": 4986,
      "cracked": 4987,
      "transparent": 4988,
      "Cement": 4989,
      "ale": 4990,
      "ailing": 4991,
      "wel": 4992,
      "earing": 4993,
      "cessed": 4994,
      "Meat": 4995,
      "upward": 4996,
      "crosses": 4997,
      "lery": 4998,
      "pushed": 4999,
      "powered": 5000,
      "had": 5001,
      "hub": 5002,
      "gress": 5003,
      "stretch": 5004,
      "bearded": 5005,
      "weathered": 5006,
      "zip": 5007,
      "arc": 5008,
      "asy": 5009,
      "firetruck": 5010,
      "Pile": 5011,
      "countryside": 5012,
      "classic": 5013,
      "carpeted": 5014,
      "Airl": 5015,
      "ivory": 5016,
      "tone": 5017,
      "isting": 5018,
      "devices": 5019,
      "cloths": 5020,
      "Beautiful": 5021,
      "cucumbers": 5022,
      "JACKET": 5023,
      "COU": 5024,
      "cid": 5025,
      "gee": 5026,
      "urt": 5027,
      "jumbo": 5028,
      "WII": 5029,
      "Hands": 5030,
      "Dry": 5031,
      "copy": 5032,
      "coaster": 5033,
      "areas": 5034,
      "sages": 5035,
      "pockets": 5036,
      "DOOR": 5037,
      "snacks": 5038,
      "lego": 5039,
      "tries": 5040,
      "screens": 5041,
      "protection": 5042,
      "extending": 5043,
      "Dead": 5044,
      "veggie": 5045,
      "hooked": 5046,
      "Pro": 5047,
      "rising": 5048,
      "wheelchair": 5049,
      "pitchers": 5050,
      "PARK": 5051,
      "Female": 5052,
      "transportation": 5053,
      "Luggage": 5054,
      "ZEBRA": 5055,
      "13": 5056,
      "BIR": 5057,
      "thread": 5058,
      "thigh": 5059,
      "stirr": 5060,
      "fingernail": 5061,
      "alcohol": 5062,
      "emergency": 5063,
      "GIRA": 5064,
      "Edge": 5065,
      "FE": 5066,
      "within": 5067,
      "tory": 5068,
      "sunshine": 5069,
      "ONG": 5070,
      "balding": 5071,
      "pajamas": 5072,
      "Pedestri": 5073,
      "ZZ": 5074,
      "slow": 5075,
      "coke": 5076,
      "streak": 5077,
      "metro": 5078,
      "Leaf": 5079,
      "Donuts": 5080,
      "products": 5081,
      "stares": 5082,
      "ELEPH": 5083,
      "accessories": 5084,
      "DIS": 5085,
      "Ru": 5086,
      "babies": 5087,
      "bikers": 5088,
      "extra": 5089,
      "falls": 5090,
      "blazer": 5091,
      "ferry": 5092,
      "glish": 5093,
      "English": 5094,
      "Different": 5095,
      "License": 5096,
      "wading": 5097,
      "arri": 5098,
      "alo": 5099,
      "mashed": 5100,
      "suring": 5101,
      "handlebar": 5102,
      "shell": 5103,
      "sprinkled": 5104,
      "Cross": 5105,
      "rabbit": 5106,
      "Ass": 5107,
      "roy": 5108,
      "tortilla": 5109,
      "drivers": 5110,
      "wristwatch": 5111,
      "styrofoam": 5112,
      "Button": 5113,
      "ICE": 5114,
      "wheeled": 5115,
      "classroom": 5116,
      "COLOR": 5117,
      "peanut": 5118,
      "FEN": 5119,
      "Pot": 5120,
      "PLE": 5121,
      "found": 5122,
      "ante": 5123,
      "istic": 5124,
      "rable": 5125,
      "will": 5126,
      "speaking": 5127,
      "supports": 5128,
      "Dirty": 5129,
      "Name": 5130,
      "Palm": 5131,
      "ive": 5132,
      "sizes": 5133,
      "handing": 5134,
      "sleeps": 5135,
      "Shiny": 5136,
      "DS": 5137,
      "GO": 5138,
      "OK": 5139,
      "Tom": 5140,
      "emp": 5141,
      "celery": 5142,
      "braid": 5143,
      "zzly": 5144,
      "turns": 5145,
      "squash": 5146,
      "Skiers": 5147,
      "figures": 5148,
      "magazines": 5149,
      "Letters": 5150,
      "Electric": 5151,
      "BEN": 5152,
      "TAN": 5153,
      "teh": 5154,
      "last": 5155,
      "manhole": 5156,
      "filling": 5157,
      "conver": 5158,
      "taller": 5159,
      "Banana": 5160,
      "gym": 5161,
      "High": 5162,
      "Mouse": 5163,
      "bug": 5164,
      "hoop": 5165,
      "brow": 5166,
      "planted": 5167,
      "bullet": 5168,
      "OME": 5169,
      "tropical": 5170,
      "referee": 5171,
      "PER": 5172,
      "urope": 5173,
      "wre": 5174,
      "bud": 5175,
      "buds": 5176,
      "shops": 5177,
      "aerial": 5178,
      "15": 5179,
      "Mic": 5180,
      "Star": 5181,
      "leads": 5182,
      "arn": 5183,
      "heater": 5184,
      "asted": 5185,
      "leafs": 5186,
      "TREES": 5187,
      "obstacle": 5188,
      "Bread": 5189,
      "lor": 5190,
      "strange": 5191,
      "ork": 5192,
      "ridden": 5193,
      "quar": 5194,
      "rence": 5195,
      "compact": 5196,
      "shines": 5197,
      "OTOR": 5198,
      "directly": 5199,
      "Bl": 5200,
      "DV": 5201,
      "HA": 5202,
      "MOTOR": 5203,
      "Pitch": 5204,
      "boarders": 5205,
      "ridgerator": 5206,
      "rely": 5207,
      "ousel": 5208,
      "progress": 5209,
      "specta": 5210,
      "lender": 5211,
      "Headlights": 5212,
      "teenager": 5213,
      "WALKING": 5214,
      "DR": 5215,
      "usual": 5216,
      "lular": 5217,
      "stepping": 5218,
      "bunny": 5219,
      "crew": 5220,
      "photographs": 5221,
      "dimly": 5222,
      "latch": 5223,
      "attra": 5224,
      "bubbles": 5225,
      "urn": 5226,
      "outline": 5227,
      "Bag": 5228,
      "storefront": 5229,
      "stabilizer": 5230,
      "VES": 5231,
      "depot": 5232,
      "macar": 5233,
      "loose": 5234,
      "mountainside": 5235,
      "spring": 5236,
      "toothpick": 5237,
      "suite": 5238,
      "selves": 5239,
      "paneling": 5240,
      "Animals": 5241,
      "gry": 5242,
      "mea": 5243,
      "bie": 5244,
      "batters": 5245,
      "works": 5246,
      "sprinkle": 5247,
      "entering": 5248,
      "handicap": 5249,
      "tucked": 5250,
      "Numer": 5251,
      "bone": 5252,
      "done": 5253,
      "poo": 5254,
      "lanyard": 5255,
      "foo": 5256,
      "chees": 5257,
      "comes": 5258,
      "bands": 5259,
      "Basket": 5260,
      "ORAN": 5261,
      "PIZZ": 5262,
      "indicator": 5263,
      "ud": 5264,
      "roam": 5265,
      "meeting": 5266,
      "movie": 5267,
      "bend": 5268,
      "rustic": 5269,
      "turf": 5270,
      "Signs": 5271,
      "BATH": 5272,
      "china": 5273,
      "quiet": 5274,
      "Spo": 5275,
      "cards": 5276,
      "carousel": 5277,
      "numerous": 5278,
      "tongs": 5279,
      "adorable": 5280,
      "allel": 5281,
      "Mon": 5282,
      "uge": 5283,
      "ord": 5284,
      "location": 5285,
      "plaza": 5286,
      "hap": 5287,
      "squir": 5288,
      "BOAT": 5289,
      "Golden": 5290,
      "knitted": 5291,
      "METAL": 5292,
      "Crow": 5293,
      "cant": 5294,
      "plow": 5295,
      "bad": 5296,
      "tabletop": 5297,
      "mass": 5298,
      "angles": 5299,
      "Sea": 5300,
      "coats": 5301,
      "issors": 5302,
      "freeway": 5303,
      "nostrils": 5304,
      "honey": 5305,
      "Striped": 5306,
      "PIZZA": 5307,
      "Fra": 5308,
      "Med": 5309,
      "Vase": 5310,
      "tossing": 5311,
      "camou": 5312,
      "ficial": 5313,
      "ATCH": 5314,
      "cellular": 5315,
      "inflatable": 5316,
      "mannequin": 5317,
      "DVD": 5318,
      "measuring": 5319,
      "Kids": 5320,
      "ext": 5321,
      "gers": 5322,
      "sour": 5323,
      "adorn": 5324,
      "possi": 5325,
      "contents": 5326,
      "prope": 5327,
      "holders": 5328,
      "soldier": 5329,
      "garnish": 5330,
      "Stainless": 5331,
      "naked": 5332,
      "yarn": 5333,
      "racer": 5334,
      "alog": 5335,
      "plains": 5336,
      "tide": 5337,
      "chip": 5338,
      "cular": 5339,
      "dipping": 5340,
      "whit": 5341,
      "TAIN": 5342,
      "tissues": 5343,
      "pression": 5344,
      "Clu": 5345,
      "Ta": 5346,
      "Tele": 5347,
      "oping": 5348,
      "ini": 5349,
      "bedding": 5350,
      "refridgerator": 5351,
      "captivity": 5352,
      "super": 5353,
      "teapot": 5354,
      "BENCH": 5355,
      "psi": 5356,
      "rh": 5357,
      "anding": 5358,
      "limbs": 5359,
      "moto": 5360,
      "faced": 5361,
      "bigger": 5362,
      "barbe": 5363,
      "Cir": 5364,
      "CON": 5365,
      "proba": 5366,
      "centra": 5367,
      "themselves": 5368,
      "spiral": 5369,
      "Sliced": 5370,
      "DES": 5371,
      "FLO": 5372,
      "lle": 5373,
      "vines": 5374,
      "badge": 5375,
      "begin": 5376,
      "parallel": 5377,
      "signage": 5378,
      "ference": 5379,
      "much": 5380,
      "dense": 5381,
      "sailboats": 5382,
      "blocking": 5383,
      "ogurt": 5384,
      "speckled": 5385,
      "summer": 5386,
      "lish": 5387,
      "rasp": 5388,
      "chment": 5389,
      "dozen": 5390,
      "poking": 5391,
      "treme": 5392,
      "carving": 5393,
      "lantern": 5394,
      "torso": 5395,
      "dragon": 5396,
      "Tire": 5397,
      "nur": 5398,
      "ingu": 5399,
      "winding": 5400,
      "litter": 5401,
      "linen": 5402,
      "flaming": 5403,
      "swimsuit": 5404,
      "Coca": 5405,
      "mixing": 5406,
      "WAY": 5407,
      "Kites": 5408,
      "Toma": 5409,
      "25": 5410,
      "cling": 5411,
      "money": 5412,
      "wedge": 5413,
      "icured": 5414,
      "flash": 5415,
      "vendor": 5416,
      "halves": 5417,
      "charger": 5418,
      "Oranges": 5419,
      "humming": 5420,
      "hawk": 5421,
      "Sing": 5422,
      "orien": 5423,
      "wit": 5424,
      "wired": 5425,
      "alls": 5426,
      "cocon": 5427,
      "greenish": 5428,
      "vessel": 5429,
      "pend": 5430,
      "croiss": 5431,
      "boulders": 5432,
      "CLOCK": 5433,
      "BASEBALL": 5434,
      "Corn": 5435,
      "HAIR": 5436,
      "nine": 5437,
      "zone": 5438,
      "inf": 5439,
      "laun": 5440,
      "pork": 5441,
      "calico": 5442,
      "instr": 5443,
      "chained": 5444,
      "mess": 5445,
      "ROAD": 5446,
      "clutter": 5447,
      "Sidewalk": 5448,
      "Vehicles": 5449,
      "macaroni": 5450,
      "Television": 5451,
      "Pat": 5452,
      "Watch": 5453,
      "pears": 5454,
      "ret": 5455,
      "limit": 5456,
      "gated": 5457,
      "markers": 5458,
      "Headlight": 5459,
      "Scissors": 5460,
      "onlookers": 5461,
      "penguin": 5462,
      "geese": 5463,
      "probably": 5464,
      "COW": 5465,
      "CYCLE": 5466,
      "Pine": 5467,
      "ious": 5468,
      "themed": 5469,
      "ummy": 5470,
      "cubi": 5471,
      "hangar": 5472,
      "panese": 5473,
      "chunks": 5474,
      "seasoning": 5475,
      "Pitcher": 5476,
      "extingu": 5477,
      "ide": 5478,
      "infield": 5479,
      "tier": 5480,
      "colle": 5481,
      "goog": 5482,
      "facade": 5483,
      "amid": 5484,
      "called": 5485,
      "bottoms": 5486,
      "learning": 5487,
      "Cre": 5488,
      "san": 5489,
      "yogurt": 5490,
      "lation": 5491,
      "coal": 5492,
      "festi": 5493,
      "cara": 5494,
      "hilly": 5495,
      "roofs": 5496,
      "message": 5497,
      "Neck": 5498,
      "Cut": 5499,
      "copper": 5500,
      "dial": 5501,
      "flage": 5502,
      "donkey": 5503,
      "textured": 5504,
      "Cola": 5505,
      "chefs": 5506,
      "Numbers": 5507,
      "cred": 5508,
      "recessed": 5509,
      "beads": 5510,
      "dama": 5511,
      "bricked": 5512,
      "ffel": 5513,
      "Sunlight": 5514,
      "separating": 5515,
      "village": 5516,
      "BED": 5517,
      "yo": 5518,
      "coca": 5519,
      "plen": 5520,
      "pher": 5521,
      "icine": 5522,
      "help": 5523,
      "guards": 5524,
      "mural": 5525,
      "REE": 5526,
      "thumbs": 5527,
      "Motorcycles": 5528,
      "GLASSES": 5529,
      "flooded": 5530,
      "Fur": 5531,
      "KI": 5532,
      "Por": 5533,
      "sided": 5534,
      "herbs": 5535,
      "slicing": 5536,
      "spon": 5537,
      "LES": 5538,
      "rearview": 5539,
      "grizzly": 5540,
      "mill": 5541,
      "pug": 5542,
      "enjoy": 5543,
      "paintings": 5544,
      "texting": 5545,
      "bracelets": 5546,
      "Au": 5547,
      "Bun": 5548,
      "cuit": 5549,
      "wand": 5550,
      "reins": 5551,
      "sts": 5552,
      "atue": 5553,
      "borate": 5554,
      "skatepark": 5555,
      "herding": 5556,
      "Wire": 5557,
      "STRI": 5558,
      "tourist": 5559,
      "illight": 5560,
      "FENCE": 5561,
      "CT": 5562,
      "Pen": 5563,
      "imp": 5564,
      "mor": 5565,
      "nu": 5566,
      "lable": 5567,
      "necks": 5568,
      "mozz": 5569,
      "leaping": 5570,
      "towering": 5571,
      "Statue": 5572,
      "positioned": 5573,
      "figurines": 5574,
      "Closeup": 5575,
      "hauling": 5576,
      "ORANGE": 5577,
      "oriental": 5578,
      "Bran": 5579,
      "CHI": 5580,
      "SAND": 5581,
      "fields": 5582,
      "cellphones": 5583,
      "warehouse": 5584,
      "swung": 5585,
      "Pieces": 5586,
      "operating": 5587,
      "website": 5588,
      "TRUCK": 5589,
      "Advertise": 5590,
      "conversation": 5591,
      "repair": 5592,
      "stered": 5593,
      "names": 5594,
      "cheesy": 5595,
      "Jet": 5596,
      "Kid": 5597,
      "mber": 5598,
      "yes": 5599,
      "camo": 5600,
      "histori": 5601,
      "overgrown": 5602,
      "legged": 5603,
      "bundle": 5604,
      "bling": 5605,
      "wrapping": 5606,
      "scooters": 5607,
      "trails": 5608,
      "BIKE": 5609,
      "FIELD": 5610,
      "kissing": 5611,
      "PANTS": 5612,
      "FLOOR": 5613,
      "Europe": 5614,
      "bits": 5615,
      "sled": 5616,
      "thru": 5617,
      "grazes": 5618,
      "mechan": 5619,
      "flour": 5620,
      "frozen": 5621,
      "croche": 5622,
      "sheer": 5623,
      "SHE": 5624,
      "drops": 5625,
      "Plates": 5626,
      "Letter": 5627,
      "Plant": 5628,
      "Smoke": 5629,
      "archite": 5630,
      "BATHROOM": 5631,
      "extinguisher": 5632,
      "Del": 5633,
      "Mouth": 5634,
      "Shel": 5635,
      "ng": 5636,
      "vd": 5637,
      "snowsuit": 5638,
      "brim": 5639,
      "tourists": 5640,
      "beverages": 5641,
      "Both": 5642,
      "FLOW": 5643,
      "mal": 5644,
      "inde": 5645,
      "reg": 5646,
      "took": 5647,
      "taped": 5648,
      "grab": 5649,
      "unusual": 5650,
      "stops": 5651,
      "dais": 5652,
      "commode": 5653,
      "hedges": 5654,
      "needles": 5655,
      "wer": 5656,
      "manicured": 5657,
      "lodge": 5658,
      "arella": 5659,
      "peice": 5660,
      "needs": 5661,
      "collage": 5662,
      "hairs": 5663,
      "expression": 5664,
      "dude": 5665,
      "lendar": 5666,
      "bordering": 5667,
      "Plants": 5668,
      "artificial": 5669,
      "students": 5670,
      "savannah": 5671,
      "PINK": 5672,
      "ored": 5673,
      "rin": 5674,
      "year": 5675,
      "ining": 5676,
      "reach": 5677,
      "aprt": 5678,
      "banners": 5679,
      "venue": 5680,
      "trio": 5681,
      "SHOR": 5682,
      "Cloudy": 5683,
      "identical": 5684,
      "Arm": 5685,
      "Donut": 5686,
      "torized": 5687,
      "adjusting": 5688,
      "GIRAFFE": 5689,
      "BOW": 5690,
      "mul": 5691,
      "ancho": 5692,
      "torn": 5693,
      "angs": 5694,
      "chipped": 5695,
      "dip": 5696,
      "shakers": 5697,
      "REL": 5698,
      "ELEPHANT": 5699,
      "18": 5700,
      "Al": 5701,
      "ipod": 5702,
      "analog": 5703,
      "arches": 5704,
      "lashes": 5705,
      "enve": 5706,
      "brun": 5707,
      "gaming": 5708,
      "relish": 5709,
      "whipped": 5710,
      "stamp": 5711,
      "spout": 5712,
      "medicine": 5713,
      "cork": 5714,
      "cooling": 5715,
      "camouflage": 5716,
      "Single": 5717,
      "MO": 5718,
      "tying": 5719,
      "reo": 5720,
      "ara": 5721,
      "rag": 5722,
      "partition": 5723,
      "vender": 5724,
      "protru": 5725,
      "extreme": 5726,
      "massive": 5727,
      "bulls": 5728,
      "scrat": 5729,
      "boundary": 5730,
      "SKATEBOARD": 5731,
      "Engine": 5732,
      "EY": 5733,
      "JE": 5734,
      "SOME": 5735,
      "fins": 5736,
      "enga": 5737,
      "motorized": 5738,
      "ures": 5739,
      "bins": 5740,
      "hitter": 5741,
      "smiley": 5742,
      "finish": 5743,
      "Stair": 5744,
      "shutter": 5745,
      "Airlines": 5746,
      "FU": 5747,
      "NEAR": 5748,
      "Sink": 5749,
      "dying": 5750,
      "root": 5751,
      "toiletries": 5752,
      "younger": 5753,
      "desks": 5754,
      "dated": 5755,
      "ANS": 5756,
      "flowering": 5757,
      "mousepad": 5758,
      "lifting": 5759,
      "posters": 5760,
      "Blurry": 5761,
      "Beach": 5762,
      "CL": 5763,
      "rea": 5764,
      "tote": 5765,
      "tram": 5766,
      "watermark": 5767,
      "atee": 5768,
      "nearly": 5769,
      "conference": 5770,
      "racquets": 5771,
      "minivan": 5772,
      "smartphone": 5773,
      "That": 5774,
      "kiwi": 5775,
      "noon": 5776,
      "shaving": 5777,
      "talk": 5778,
      "tuxed": 5779,
      "carpeting": 5780,
      "sausages": 5781,
      "viewing": 5782,
      "plenty": 5783,
      "fits": 5784,
      "selection": 5785,
      "grinding": 5786,
      "surfs": 5787,
      "antelope": 5788,
      "Bridge": 5789,
      "Tip": 5790,
      "barely": 5791,
      "fring": 5792,
      "handrail": 5793,
      "chopping": 5794,
      "cris": 5795,
      "parasailing": 5796,
      "elaborate": 5797,
      "squirrel": 5798,
      "LD": 5799,
      "LIT": 5800,
      "non": 5801,
      "tit": 5802,
      "camper": 5803,
      "ctus": 5804,
      "sable": 5805,
      "locked": 5806,
      "claim": 5807,
      "dashboard": 5808,
      "coconut": 5809,
      "DI": 5810,
      "Pan": 5811,
      "TOW": 5812,
      "sley": 5813,
      "loye": 5814,
      "gras": 5815,
      "ctu": 5816,
      "goatee": 5817,
      "motorcy": 5818,
      "tripod": 5819,
      "shelving": 5820,
      "married": 5821,
      "starting": 5822,
      "mitten": 5823,
      "BEACH": 5824,
      "interesting": 5825,
      "when": 5826,
      "FL": 5827,
      "gant": 5828,
      "hatch": 5829,
      "ony": 5830,
      "strand": 5831,
      "strong": 5832,
      "vering": 5833,
      "largest": 5834,
      "dispo": 5835,
      "ctions": 5836,
      "steer": 5837,
      "Boys": 5838,
      "crumpled": 5839,
      "IRT": 5840,
      "advertisements": 5841,
      "polish": 5842,
      "escalator": 5843,
      "Delta": 5844,
      "Horn": 5845,
      "Ocean": 5846,
      "OTO": 5847,
      "Str": 5848,
      "gown": 5849,
      "santa": 5850,
      "thedra": 5851,
      "lated": 5852,
      "bubble": 5853,
      "tasting": 5854,
      "ruff": 5855,
      "clearing": 5856,
      "gus": 5857,
      "Carrots": 5858,
      "ctory": 5859,
      "gonal": 5860,
      "PHOTO": 5861,
      "Vegetables": 5862,
      "orescent": 5863,
      "ughter": 5864,
      "lest": 5865,
      "grassland": 5866,
      "shaved": 5867,
      "GREY": 5868,
      "PHONE": 5869,
      "UMBREL": 5870,
      "cubicle": 5871,
      "UMBRELLA": 5872,
      "Eyes": 5873,
      "FA": 5874,
      "Hi": 5875,
      "Je": 5876,
      "Mid": 5877,
      "SINK": 5878,
      "dancing": 5879,
      "flan": 5880,
      "ress": 5881,
      "outer": 5882,
      "ened": 5883,
      "taillight": 5884,
      "llor": 5885,
      "llite": 5886,
      "blueberry": 5887,
      "brownish": 5888,
      "backside": 5889,
      "tending": 5890,
      "atellite": 5891,
      "jacent": 5892,
      "Pepper": 5893,
      "padded": 5894,
      "faucets": 5895,
      "wrinkle": 5896,
      "thedral": 5897,
      "DOWN": 5898,
      "VING": 5899,
      "pli": 5900,
      "rese": 5901,
      "earth": 5902,
      "homes": 5903,
      "ticket": 5904,
      "bicyclist": 5905,
      "vents": 5906,
      "sections": 5907,
      "mixture": 5908,
      "crackers": 5909,
      "Slices": 5910,
      "pencils": 5911,
      "peacock": 5912,
      "copyright": 5913,
      "possibly": 5914,
      "brunette": 5915,
      "Jo": 5916,
      "SP": 5917,
      "sical": 5918,
      "calendar": 5919,
      "ships": 5920,
      "upwards": 5921,
      "womens": 5922,
      "stores": 5923,
      "mugs": 5924,
      "spice": 5925,
      "automobile": 5926,
      "growth": 5927,
      "hummingbird": 5928,
      "Advertisement": 5929,
      "Dough": 5930,
      "Gar": 5931,
      "OKING": 5932,
      "puts": 5933,
      "tou": 5934,
      "start": 5935,
      "traditional": 5936,
      "ttles": 5937,
      "tiger": 5938,
      "dol": 5939,
      "coloring": 5940,
      "paneled": 5941,
      "Wires": 5942,
      "OPEN": 5943,
      "clown": 5944,
      "MOTORCYCLE": 5945,
      "KET": 5946,
      "WHE": 5947,
      "bing": 5948,
      "kna": 5949,
      "mantel": 5950,
      "terra": 5951,
      "fect": 5952,
      "angel": 5953,
      "stopping": 5954,
      "flame": 5955,
      "towing": 5956,
      "doubles": 5957,
      "checker": 5958,
      "Remote": 5959,
      "SHAD": 5960,
      "Inside": 5961,
      "PLAYER": 5962,
      "mozzarella": 5963,
      "ava": 5964,
      "ws": 5965,
      "wheat": 5966,
      "intent": 5967,
      "yered": 5968,
      "molding": 5969,
      "world": 5970,
      "ATING": 5971,
      "Polar": 5972,
      "approaches": 5973,
      "mbled": 5974,
      "alert": 5975,
      "rd": 5976,
      "iner": 5977,
      "test": 5978,
      "heard": 5979,
      "adjacent": 5980,
      "cactus": 5981,
      "folder": 5982,
      "cue": 5983,
      "els": 5984,
      "THREE": 5985,
      "were": 5986,
      "weight": 5987,
      "weird": 5988,
      "armrest": 5989,
      "mous": 5990,
      "gloved": 5991,
      "marsh": 5992,
      "LOT": 5993,
      "TOI": 5994,
      "profile": 5995,
      "Flat": 5996,
      "buffalo": 5997,
      "listening": 5998,
      "infant": 5999,
      "16": 6000,
      "30": 6001,
      "blueberries": 6002,
      "pail": 6003,
      "lance": 6004,
      "daughter": 6005,
      "LEA": 6006,
      "SIL": 6007,
      "teenage": 6008,
      "Words": 6009,
      "whtie": 6010,
      "14": 6011,
      "bes": 6012,
      "layered": 6013,
      "file": 6014,
      "neare": 6015,
      "unfinished": 6016,
      "roads": 6017,
      "current": 6018,
      "sham": 6019,
      "stovetop": 6020,
      "gripping": 6021,
      "costumes": 6022,
      "Kit": 6023,
      "cet": 6024,
      "lanes": 6025,
      "sesame": 6026,
      "motorcyclists": 6027,
      "tallest": 6028,
      "burning": 6029,
      "OLD": 6030,
      "paragus": 6031,
      "Tile": 6032,
      "dividing": 6033,
      "creek": 6034,
      "bangs": 6035,
      "fts": 6036,
      "jor": 6037,
      "spark": 6038,
      "une": 6039,
      "lab": 6040,
      "topus": 6041,
      "parsley": 6042,
      "factory": 6043,
      "exam": 6044,
      "LAP": 6045,
      "liquor": 6046,
      "Indi": 6047,
      "Closed": 6048,
      "consisting": 6049,
      "PARKED": 6050,
      "attractive": 6051,
      "HO": 6052,
      "HER": 6053,
      "dang": 6054,
      "diced": 6055,
      "ona": 6056,
      "thest": 6057,
      "cathedral": 6058,
      "elegant": 6059,
      "flop": 6060,
      "loop": 6061,
      "rus": 6062,
      "gutter": 6063,
      "tiered": 6064,
      "ANG": 6065,
      "blank": 6066,
      "steamed": 6067,
      "product": 6068,
      "completely": 6069,
      "customers": 6070,
      "Straw": 6071,
      "furnished": 6072,
      "index": 6073,
      "CLOU": 6074,
      "Cr": 6075,
      "Gri": 6076,
      "Ser": 6077,
      "Teleph": 6078,
      "WR": 6079,
      "liet": 6080,
      "cam": 6081,
      "quick": 6082,
      "obsc": 6083,
      "cran": 6084,
      "condiment": 6085,
      "aero": 6086,
      "BIRD": 6087,
      "Crowd": 6088,
      "rhino": 6089,
      "Corner": 6090,
      "anchored": 6091,
      "tuxedo": 6092,
      "Apples": 6093,
      "zard": 6094,
      "rical": 6095,
      "bucks": 6096,
      "Board": 6097,
      "Bottles": 6098,
      "buckets": 6099,
      "barriers": 6100,
      "barricade": 6101,
      "Shoes": 6102,
      "TOILET": 6103,
      "Telephone": 6104,
      "Wearing": 6105,
      "intri": 6106,
      "threw": 6107,
      "umble": 6108,
      "thats": 6109,
      "legging": 6110,
      "culator": 6111,
      "rung": 6112,
      "mus": 6113,
      "spons": 6114,
      "uffle": 6115,
      "special": 6116,
      "indicates": 6117,
      "mailbox": 6118,
      "roaming": 6119,
      "Spoon": 6120,
      "Medium": 6121,
      "Bush": 6122,
      "Cau": 6123,
      "Ha": 6124,
      "II": 6125,
      "Na": 6126,
      "cd": 6127,
      "remo": 6128,
      "ises": 6129,
      "isted": 6130,
      "ske": 6131,
      "sme": 6132,
      "nie": 6133,
      "stereo": 6134,
      "lamppost": 6135,
      "diner": 6136,
      "forested": 6137,
      "hua": 6138,
      "flipping": 6139,
      "mbers": 6140,
      "curious": 6141,
      "Keyboard": 6142,
      "biscuit": 6143,
      "employe": 6144,
      "nearest": 6145,
      "gor": 6146,
      "junk": 6147,
      "otic": 6148,
      "tanger": 6149,
      "regu": 6150,
      "lavender": 6151,
      "simil": 6152,
      "treat": 6153,
      "rooftop": 6154,
      "vanilla": 6155,
      "shingles": 6156,
      "Skis": 6157,
      "plumbing": 6158,
      "twel": 6159,
      "Cand": 6160,
      "Suit": 6161,
      "Up": 6162,
      "sword": 6163,
      "vation": 6164,
      "retri": 6165,
      "ener": 6166,
      "change": 6167,
      "bead": 6168,
      "pancake": 6169,
      "cubs": 6170,
      "LED": 6171,
      "dual": 6172,
      "Cooked": 6173,
      "octopus": 6174,
      "screws": 6175,
      "muffins": 6176,
      "COMPU": 6177,
      "Pillows": 6178,
      "depicting": 6179,
      "similar": 6180,
      "twelve": 6181,
      "Camer": 6182,
      "Mil": 6183,
      "sten": 6184,
      "hiking": 6185,
      "ody": 6186,
      "serves": 6187,
      "tuft": 6188,
      "lent": 6189,
      "competing": 6190,
      "lovely": 6191,
      "stockings": 6192,
      "Canadian": 6193,
      "Framed": 6194,
      "COMPUTER": 6195,
      "HIND": 6196,
      "Rain": 6197,
      "broad": 6198,
      "sen": 6199,
      "ative": 6200,
      "places": 6201,
      "pied": 6202,
      "cape": 6203,
      "waterfall": 6204,
      "handed": 6205,
      "force": 6206,
      "motorbikes": 6207,
      "asparagus": 6208,
      "childs": 6209,
      "formed": 6210,
      "tug": 6211,
      "cleaner": 6212,
      "blocked": 6213,
      "farmer": 6214,
      "florets": 6215,
      "cotta": 6216,
      "escape": 6217,
      "grandfather": 6218,
      "volleyball": 6219,
      "Tower": 6220,
      "boun": 6221,
      "bold": 6222,
      "waffle": 6223,
      "outfits": 6224,
      "writings": 6225,
      "ramps": 6226,
      "ities": 6227,
      "Tooth": 6228,
      "balconies": 6229,
      "VERY": 6230,
      "Herd": 6231,
      "projector": 6232,
      "aut": 6233,
      "oak": 6234,
      "uals": 6235,
      "utes": 6236,
      "ates": 6237,
      "could": 6238,
      "ambu": 6239,
      "burned": 6240,
      "crispy": 6241,
      "gates": 6242,
      "TIRE": 6243,
      "celebrating": 6244,
      "SHOES": 6245,
      "BOWL": 6246,
      "leggings": 6247,
      "Cla": 6248,
      "CRE": 6249,
      "Hap": 6250,
      "Wing": 6251,
      "ee": 6252,
      "ica": 6253,
      "combin": 6254,
      "prong": 6255,
      "expan": 6256,
      "club": 6257,
      "structures": 6258,
      "BEHIND": 6259,
      "graphed": 6260,
      "Hard": 6261,
      "Mc": 6262,
      "satellite": 6263,
      "record": 6264,
      "hips": 6265,
      "stitch": 6266,
      "placing": 6267,
      "peering": 6268,
      "unpeeled": 6269,
      "conven": 6270,
      "overalls": 6271,
      "vending": 6272,
      "fluorescent": 6273,
      "ELL": 6274,
      "scaf": 6275,
      "sweatband": 6276,
      "drople": 6277,
      "athlete": 6278,
      "Broken": 6279,
      "Happy": 6280,
      "Har": 6281,
      "Tri": 6282,
      "think": 6283,
      "raquet": 6284,
      "grows": 6285,
      "rooms": 6286,
      "dials": 6287,
      "turtle": 6288,
      "Rect": 6289,
      "Chrome": 6290,
      "Shoe": 6291,
      "SHEEP": 6292,
      "bon": 6293,
      "span": 6294,
      "yet": 6295,
      "live": 6296,
      "wai": 6297,
      "tipped": 6298,
      "backpacks": 6299,
      "doorknob": 6300,
      "overhang": 6301,
      "mountainous": 6302,
      "Chicken": 6303,
      "Grassy": 6304,
      "afternoon": 6305,
      "comfortable": 6306,
      "BAG": 6307,
      "chini": 6308,
      "speeding": 6309,
      "Ears": 6310,
      "lipstick": 6311,
      "FOOD": 6312,
      "DESK": 6313,
      "Cream": 6314,
      "dangling": 6315,
      "Camera": 6316,
      "24": 6317,
      "ama": 6318,
      "ient": 6319,
      "letting": 6320,
      "raising": 6321,
      "umn": 6322,
      "downward": 6323,
      "got": 6324,
      "icon": 6325,
      "rubbing": 6326,
      "hooks": 6327,
      "mirro": 6328,
      "wreath": 6329,
      "LONG": 6330,
      "MIR": 6331,
      "OVER": 6332,
      "York": 6333,
      "polit": 6334,
      "gift": 6335,
      "ridges": 6336,
      "skates": 6337,
      "ions": 6338,
      "shorter": 6339,
      "soaring": 6340,
      "THESE": 6341,
      "monster": 6342,
      "stationary": 6343,
      "licence": 6344,
      "Adidas": 6345,
      "credit": 6346,
      "SILVER": 6347,
      "Cu": 6348,
      "Crack": 6349,
      "ROW": 6350,
      "labe": 6351,
      "lapel": 6352,
      "bidet": 6353,
      "horned": 6354,
      "peri": 6355,
      "scall": 6356,
      "logos": 6357,
      "balck": 6358,
      "spaghe": 6359,
      "Most": 6360,
      "relax": 6361,
      "chalkboard": 6362,
      "recep": 6363,
      "POLE": 6364,
      "Living": 6365,
      "dumpster": 6366,
      "disposable": 6367,
      "Du": 6368,
      "FRO": 6369,
      "Hanging": 6370,
      "ION": 6371,
      "Phone": 6372,
      "reign": 6373,
      "toliet": 6374,
      "lotion": 6375,
      "lobby": 6376,
      "sack": 6377,
      "spoke": 6378,
      "prop": 6379,
      "calculator": 6380,
      "tulips": 6381,
      "ITCH": 6382,
      "ILING": 6383,
      "attempts": 6384,
      "UNDER": 6385,
      "royal": 6386,
      "laundry": 6387,
      "PED": 6388,
      "ROR": 6389,
      "Sail": 6390,
      "grid": 6391,
      "ivy": 6392,
      "tidy": 6393,
      "keyboards": 6394,
      "instal": 6395,
      "cited": 6396,
      "OUR": 6397,
      "stalls": 6398,
      "States": 6399,
      "croissant": 6400,
      "European": 6401,
      "spaghetti": 6402,
      "Card": 6403,
      "First": 6404,
      "GU": 6405,
      "WOR": 6406,
      "nor": 6407,
      "tagged": 6408,
      "address": 6409,
      "bea": 6410,
      "mean": 6411,
      "thermo": 6412,
      "armchair": 6413,
      "daylight": 6414,
      "cedes": 6415,
      "subur": 6416,
      "vests": 6417,
      "oppon": 6418,
      "SUN": 6419,
      "swans": 6420,
      "Outdoor": 6421,
      "rooster": 6422,
      "BAT": 6423,
      "Fa": 6424,
      "Of": 6425,
      "dvd": 6426,
      "duffle": 6427,
      "tines": 6428,
      "sking": 6429,
      "perfect": 6430,
      "else": 6431,
      "merged": 6432,
      "created": 6433,
      "closely": 6434,
      "seaweed": 6435,
      "LADY": 6436,
      "tarma": 6437,
      "protect": 6438,
      "bulbs": 6439,
      "levels": 6440,
      "practice": 6441,
      "soldiers": 6442,
      "gazelle": 6443,
      "googles": 6444,
      "MIRROR": 6445,
      "Flu": 6446,
      "Ger": 6447,
      "SO": 6448,
      "ufa": 6449,
      "yach": 6450,
      "env": 6451,
      "orary": 6452,
      "early": 6453,
      "ssom": 6454,
      "backsplash": 6455,
      "gives": 6456,
      "ckson": 6457,
      "cupied": 6458,
      "vio": 6459,
      "flats": 6460,
      "cending": 6461,
      "affixed": 6462,
      "Pictures": 6463,
      "LOOKING": 6464,
      "farmers": 6465,
      "allest": 6466,
      "WALK": 6467,
      "Stick": 6468,
      "beginning": 6469,
      "festival": 6470,
      "WHEEL": 6471,
      "HEL": 6472,
      "TALL": 6473,
      "awaiting": 6474,
      "won": 6475,
      "then": 6476,
      "lids": 6477,
      "tif": 6478,
      "frog": 6479,
      "vast": 6480,
      "slippers": 6481,
      "provi": 6482,
      "Seven": 6483,
      "fitti": 6484,
      "stunts": 6485,
      "Japanese": 6486,
      "leaned": 6487,
      "camping": 6488,
      "EYE": 6489,
      "intently": 6490,
      "ambulance": 6491,
      "Ave": 6492,
      "AGE": 6493,
      "MU": 6494,
      "Mod": 6495,
      "Prof": 6496,
      "fut": 6497,
      "ield": 6498,
      "rip": 6499,
      "code": 6500,
      "major": 6501,
      "floats": 6502,
      "grouped": 6503,
      "stration": 6504,
      "OUSE": 6505,
      "accent": 6506,
      "newly": 6507,
      "ironment": 6508,
      "salmon": 6509,
      "Feet": 6510,
      "protruding": 6511,
      "intricate": 6512,
      "BAN": 6513,
      "Cap": 6514,
      "Dra": 6515,
      "Fam": 6516,
      "craf": 6517,
      "creen": 6518,
      "fine": 6519,
      "vily": 6520,
      "zuc": 6521,
      "rapi": 6522,
      "rims": 6523,
      "coll": 6524,
      "holi": 6525,
      "gree": 6526,
      "maple": 6527,
      "diving": 6528,
      "RIDING": 6529,
      "Parked": 6530,
      "gliding": 6531,
      "Railroad": 6532,
      "At": 6533,
      "Hou": 6534,
      "toned": 6535,
      "cass": 6536,
      "sleep": 6537,
      "electricity": 6538,
      "submerged": 6539,
      "blossom": 6540,
      "presen": 6541,
      "envelope": 6542,
      "environment": 6543,
      "17": 6544,
      "Tur": 6545,
      "TLE": 6546,
      "VI": 6547,
      "know": 6548,
      "snap": 6549,
      "signpost": 6550,
      "uphol": 6551,
      "cudd": 6552,
      "excited": 6553,
      "braided": 6554,
      "Middle": 6555,
      "holiday": 6556,
      "Bra": 6557,
      "Cal": 6558,
      "Hill": 6559,
      "Ice": 6560,
      "Mother": 6561,
      "cin": 6562,
      "though": 6563,
      "array": 6564,
      "seam": 6565,
      "roast": 6566,
      "windsurfing": 6567,
      "groups": 6568,
      "photographed": 6569,
      "stored": 6570,
      "Second": 6571,
      "dent": 6572,
      "Bricks": 6573,
      "Contain": 6574,
      "tattoos": 6575,
      "Cabin": 6576,
      "Jackson": 6577,
      "Railing": 6578,
      "Painting": 6579,
      "cylind": 6580,
      "FT": 6581,
      "gir": 6582,
      "gour": 6583,
      "slender": 6584,
      "inspe": 6585,
      "grease": 6586,
      "airy": 6587,
      "trous": 6588,
      "baseboard": 6589,
      "scri": 6590,
      "duffel": 6591,
      "Way": 6592,
      "youth": 6593,
      "hearts": 6594,
      "Assorted": 6595,
      "JEANS": 6596,
      "BM": 6597,
      "EA": 6598,
      "Mi": 6599,
      "SL": 6600,
      "plun": 6601,
      "rons": 6602,
      "recor": 6603,
      "sight": 6604,
      "boiled": 6605,
      "roasted": 6606,
      "coated": 6607,
      "pom": 6608,
      "neys": 6609,
      "signboard": 6610,
      "caboo": 6611,
      "courts": 6612,
      "somewhere": 6613,
      "saic": 6614,
      "guide": 6615,
      "reflects": 6616,
      "exer": 6617,
      "flatbed": 6618,
      "cleaned": 6619,
      "substance": 6620,
      "safari": 6621,
      "ITY": 6622,
      "lifeguard": 6623,
      "ribbons": 6624,
      "Buttons": 6625,
      "damaged": 6626,
      "Indian": 6627,
      "trousers": 6628,
      "lite": 6629,
      "lican": 6630,
      "nothing": 6631,
      "fences": 6632,
      "ggling": 6633,
      "shoelaces": 6634,
      "Wild": 6635,
      "sushi": 6636,
      "valve": 6637,
      "labels": 6638,
      "BABY": 6639,
      "occupied": 6640,
      "noodle": 6641,
      "temporary": 6642,
      "scoreboard": 6643,
      "Branches": 6644,
      "CHILD": 6645,
      "extremely": 6646,
      "Stairs": 6647,
      "Sp": 6648,
      "Set": 6649,
      "Wil": 6650,
      "ade": 6651,
      "swa": 6652,
      "vate": 6653,
      "oft": 6654,
      "surpr": 6655,
      "quite": 6656,
      "leslaw": 6657,
      "driven": 6658,
      "barge": 6659,
      "viewed": 6660,
      "artistic": 6661,
      "cooker": 6662,
      "Here": 6663,
      "seeing": 6664,
      "cause": 6665,
      "stalks": 6666,
      "tights": 6667,
      "flamingo": 6668,
      "motorcyle": 6669,
      "Navy": 6670,
      "Modern": 6671,
      "zucchini": 6672,
      "MAR": 6673,
      "WATCH": 6674,
      "binder": 6675,
      "fist": 6676,
      "tech": 6677,
      "mens": 6678,
      "cycling": 6679,
      "chief": 6680,
      "crooked": 6681,
      "shake": 6682,
      "ubby": 6683,
      "spare": 6684,
      "mono": 6685,
      "jumper": 6686,
      "TAIL": 6687,
      "kicked": 6688,
      "cherries": 6689,
      "separated": 6690,
      "barrels": 6691,
      "conditioning": 6692,
      "individuals": 6693,
      "AME": 6694,
      "reclining": 6695,
      "cylinder": 6696,
      "Desk": 6697,
      "streaks": 6698,
      "regular": 6699,
      "autumn": 6700,
      "droplets": 6701,
      "FROM": 6702,
      "caboose": 6703,
      "22": 6704,
      "Fan": 6705,
      "HANG": 6706,
      "Me": 6707,
      "STE": 6708,
      "ald": 6709,
      "edging": 6710,
      "rig": 6711,
      "del": 6712,
      "asse": 6713,
      "bowling": 6714,
      "stew": 6715,
      "shells": 6716,
      "sprou": 6717,
      "proper": 6718,
      "decorating": 6719,
      "itors": 6720,
      "Shower": 6721,
      "chickens": 6722,
      "pitched": 6723,
      "protector": 6724,
      "Weeds": 6725,
      "PAPER": 6726,
      "Steel": 6727,
      "everything": 6728,
      "barbecue": 6729,
      "DIRT": 6730,
      "kn": 6731,
      "yl": 6732,
      "sia": 6733,
      "tas": 6734,
      "cages": 6735,
      "casian": 6736,
      "walled": 6737,
      "moored": 6738,
      "contra": 6739,
      "west": 6740,
      "flakes": 6741,
      "ovens": 6742,
      "attachment": 6743,
      "meats": 6744,
      "styled": 6745,
      "splashes": 6746,
      "lifts": 6747,
      "mulch": 6748,
      "quickly": 6749,
      "COR": 6750,
      "EATING": 6751,
      "GG": 6752,
      "Lot": 6753,
      "Spi": 6754,
      "XT": 6755,
      "fir": 6756,
      "lever": 6757,
      "sid": 6758,
      "sewing": 6759,
      "bama": 6760,
      "tian": 6761,
      "boarded": 6762,
      "browned": 6763,
      "faint": 6764,
      "grouping": 6765,
      "spool": 6766,
      "promotion": 6767,
      "switches": 6768,
      "such": 6769,
      "spiky": 6770,
      "Photograph": 6771,
      "TION": 6772,
      "goalie": 6773,
      "directing": 6774,
      "keeping": 6775,
      "sponge": 6776,
      "fringe": 6777,
      "mirrored": 6778,
      "Houses": 6779,
      "40": 6780,
      "easy": 6781,
      "angry": 6782,
      "chor": 6783,
      "tacle": 6784,
      "nozzle": 6785,
      "grayish": 6786,
      "lapping": 6787,
      "sunflower": 6788,
      "SUIT": 6789,
      "stretches": 6790,
      "Birthday": 6791,
      "needle": 6792,
      "pearl": 6793,
      "Microwave": 6794,
      "SHADOW": 6795,
      "opponent": 6796,
      "exerc": 6797,
      "sprouts": 6798,
      "60": 6799,
      "Bre": 6800,
      "Huge": 6801,
      "Lines": 6802,
      "Nap": 6803,
      "hur": 6804,
      "remode": 6805,
      "lives": 6806,
      "grafitti": 6807,
      "ashed": 6808,
      "broi": 6809,
      "burn": 6810,
      "Rope": 6811,
      "Snowboard": 6812,
      "linked": 6813,
      "wildlife": 6814,
      "include": 6815,
      "scratching": 6816,
      "scaffolding": 6817,
      "installed": 6818,
      "Calm": 6819,
      "FLA": 6820,
      "aves": 6821,
      "cit": 6822,
      "frees": 6823,
      "gum": 6824,
      "inc": 6825,
      "seal": 6826,
      "cycles": 6827,
      "scrub": 6828,
      "curving": 6829,
      "curvy": 6830,
      "flames": 6831,
      "AROUND": 6832,
      "juicy": 6833,
      "Field": 6834,
      "stormy": 6835,
      "charging": 6836,
      "RIGHT": 6837,
      "makeup": 6838,
      "snu": 6839,
      "fuel": 6840,
      "USA": 6841,
      "wheeler": 6842,
      "grapefruit": 6843,
      "handicapped": 6844,
      "hubcap": 6845,
      "HAVE": 6846,
      "Hills": 6847,
      "Cont": 6848,
      "Fau": 6849,
      "Mer": 6850,
      "Ring": 6851,
      "Su": 6852,
      "ig": 6853,
      "anced": 6854,
      "manufa": 6855,
      "coleslaw": 6856,
      "shark": 6857,
      "unders": 6858,
      "uments": 6859,
      "specks": 6860,
      "OUP": 6861,
      "dolls": 6862,
      "symbols": 6863,
      "hinges": 6864,
      "octagonal": 6865,
      "Tomato": 6866,
      "German": 6867,
      "plunger": 6868,
      "Art": 6869,
      "Blan": 6870,
      "Mark": 6871,
      "Prope": 6872,
      "broom": 6873,
      "bine": 6874,
      "returning": 6875,
      "owed": 6876,
      "enty": 6877,
      "pirate": 6878,
      "strewn": 6879,
      "unkin": 6880,
      "REN": 6881,
      "packages": 6882,
      "cooks": 6883,
      "uselage": 6884,
      "gallon": 6885,
      "adorned": 6886,
      "propellor": 6887,
      "pendant": 6888,
      "SHORTS": 6889,
      "smelling": 6890,
      "23": 6891,
      "BB": 6892,
      "Mini": 6893,
      "Night": 6894,
      "NUMB": 6895,
      "Tu": 6896,
      "TING": 6897,
      "Wave": 6898,
      "estern": 6899,
      "beaded": 6900,
      "sideview": 6901,
      "fix": 6902,
      "yellowish": 6903,
      "mosaic": 6904,
      "checks": 6905,
      "perch": 6906,
      "shovel": 6907,
      "silvery": 6908,
      "cube": 6909,
      "nigh": 6910,
      "vacant": 6911,
      "jewel": 6912,
      "patchy": 6913,
      "hardware": 6914,
      "Toy": 6915,
      "grove": 6916,
      "presentation": 6917,
      "avai": 6918,
      "expanse": 6919,
      "Napkin": 6920,
      "Ital": 6921,
      "SW": 6922,
      "Sty": 6923,
      "Van": 6924,
      "danger": 6925,
      "almon": 6926,
      "sewer": 6927,
      "demon": 6928,
      "ssy": 6929,
      "picks": 6930,
      "omy": 6931,
      "treats": 6932,
      "descri": 6933,
      "apers": 6934,
      "attaching": 6935,
      "refrigerators": 6936,
      "corral": 6937,
      "carriages": 6938,
      "machines": 6939,
      "embroi": 6940,
      "GRAY": 6941,
      "ornaments": 6942,
      "Passengers": 6943,
      "diagonal": 6944,
      "NEXT": 6945,
      "stirrup": 6946,
      "labeled": 6947,
      "HELMET": 6948,
      "promotional": 6949,
      "Body": 6950,
      "DA": 6951,
      "Fing": 6952,
      "LINE": 6953,
      "thes": 6954,
      "stating": 6955,
      "wig": 6956,
      "build": 6957,
      "washed": 6958,
      "gram": 6959,
      "trey": 6960,
      "concer": 6961,
      "quil": 6962,
      "dripping": 6963,
      "eyed": 6964,
      "Seat": 6965,
      "medical": 6966,
      "LEG": 6967,
      "creamy": 6968,
      "lings": 6969,
      "bells": 6970,
      "Adults": 6971,
      "twisted": 6972,
      "Chopped": 6973,
      "namon": 6974,
      "galloping": 6975,
      "iPod": 6976,
      "Pedestrians": 6977,
      "KITE": 6978,
      "aeroplane": 6979,
      "suburban": 6980,
      "available": 6981,
      "KITCH": 6982,
      "Ori": 6983,
      "Players": 6984,
      "nd": 6985,
      "nature": 6986,
      "yield": 6987,
      "ism": 6988,
      "casing": 6989,
      "mage": 6990,
      "safe": 6991,
      "compan": 6992,
      "die": 6993,
      "towed": 6994,
      "caption": 6995,
      "surrounds": 6996,
      "CHE": 6997,
      "polished": 6998,
      "Store": 6999,
      "COURT": 7000,
      "slowly": 7001,
      "LITTLE": 7002,
      "receptacle": 7003,
      "undershirt": 7004,
      "KITCHEN": 7005,
      "CITY": 7006,
      "Kne": 7007,
      "Tour": 7008,
      "Tiny": 7009,
      "incoming": 7010,
      "irgin": 7011,
      "lacks": 7012,
      "gradu": 7013,
      "plated": 7014,
      "snowman": 7015,
      "mock": 7016,
      "skiiers": 7017,
      "noti": 7018,
      "solar": 7019,
      "lym": 7020,
      "drift": 7021,
      "balanced": 7022,
      "itive": 7023,
      "BOTT": 7024,
      "Airport": 7025,
      "Washing": 7026,
      "West": 7027,
      "heavily": 7028,
      "200": 7029,
      "intera": 7030,
      "spectacles": 7031,
      "pherd": 7032,
      "obscured": 7033,
      "yacht": 7034,
      "HANGING": 7035,
      "Steam": 7036,
      "dull": 7037,
      "ller": 7038,
      "velvet": 7039,
      "turbine": 7040,
      "scenic": 7041,
      "chimneys": 7042,
      "Numerous": 7043,
      "Horns": 7044,
      "retain": 7045,
      "buid": 7046,
      "buried": 7047,
      "added": 7048,
      "airlines": 7049,
      "gion": 7050,
      "ometer": 7051,
      "haircut": 7052,
      "saur": 7053,
      "amber": 7054,
      "stopper": 7055,
      "sticky": 7056,
      "cheesecake": 7057,
      "cardi": 7058,
      "lowered": 7059,
      "dolly": 7060,
      "Force": 7061,
      "private": 7062,
      "skyscrapers": 7063,
      "fedora": 7064,
      "ttime": 7065,
      "instrument": 7066,
      "architecture": 7067,
      "engaged": 7068,
      "AIN": 7069,
      "flee": 7070,
      "local": 7071,
      "peaches": 7072,
      "odle": 7073,
      "members": 7074,
      "skii": 7075,
      "orning": 7076,
      "shack": 7077,
      "landsca": 7078,
      "pets": 7079,
      "Roll": 7080,
      "housing": 7081,
      "official": 7082,
      "silly": 7083,
      "awnings": 7084,
      "seasoned": 7085,
      "recei": 7086,
      "entryway": 7087,
      "gazebo": 7088,
      "FLOWERS": 7089,
      "Bow": 7090,
      "Cor": 7091,
      "Egg": 7092,
      "Kno": 7093,
      "Saf": 7094,
      "Vin": 7095,
      "asting": 7096,
      "fet": 7097,
      "might": 7098,
      "num": 7099,
      "height": 7100,
      "hash": 7101,
      "pily": 7102,
      "cave": 7103,
      "airfield": 7104,
      "bicyclists": 7105,
      "gap": 7106,
      "underwear": 7107,
      "sung": 7108,
      "singing": 7109,
      "musical": 7110,
      "sofas": 7111,
      "sters": 7112,
      "connector": 7113,
      "Cock": 7114,
      "streamers": 7115,
      "slatted": 7116,
      "agers": 7117,
      "BIG": 7118,
      "Rocky": 7119,
      "Goggles": 7120,
      "Professional": 7121,
      "Lone": 7122,
      "Pre": 7123,
      "ROUND": 7124,
      "Ver": 7125,
      "mph": 7126,
      "entire": 7127,
      "changing": 7128,
      "kie": 7129,
      "littered": 7130,
      "bottled": 7131,
      "eyelashes": 7132,
      "dler": 7133,
      "ations": 7134,
      "ARK": 7135,
      "sitted": 7136,
      "candies": 7137,
      "tanker": 7138,
      "crab": 7139,
      "opard": 7140,
      "spinning": 7141,
      "silhouet": 7142,
      "Chairs": 7143,
      "Sticker": 7144,
      "sponsor": 7145,
      "Family": 7146,
      "casser": 7147,
      "tassel": 7148,
      "morning": 7149,
      "nts": 7150,
      "sporting": 7151,
      "wis": 7152,
      "relea": 7153,
      "seper": 7154,
      "itu": 7155,
      "pelican": 7156,
      "illu": 7157,
      "training": 7158,
      "planters": 7159,
      "buttoned": 7160,
      "LER": 7161,
      "cient": 7162,
      "ipt": 7163,
      "BOX": 7164,
      "GHTS": 7165,
      "named": 7166,
      "Teen": 7167,
      "stitching": 7168,
      "fuselage": 7169,
      "sound": 7170,
      "slacks": 7171,
      "raz": 7172,
      "cept": 7173,
      "dollar": 7174,
      "camel": 7175,
      "casual": 7176,
      "unloading": 7177,
      "kia": 7178,
      "giraffee": 7179,
      "shots": 7180,
      "dio": 7181,
      "serious": 7182,
      "sleek": 7183,
      "cameras": 7184,
      "wetsuits": 7185,
      "AREA": 7186,
      "OUNG": 7187,
      "ginger": 7188,
      "GROUP": 7189,
      "recliner": 7190,
      "MENT": 7191,
      "iPhone": 7192,
      "lorry": 7193,
      "cinnamon": 7194,
      "Wilson": 7195,
      "BAR": 7196,
      "CUP": 7197,
      "VASE": 7198,
      "pling": 7199,
      "rams": 7200,
      "oul": 7201,
      "ric": 7202,
      "gnant": 7203,
      "und": 7204,
      "backed": 7205,
      "meet": 7206,
      "somewhat": 7207,
      "shoo": 7208,
      "ickey": 7209,
      "oblong": 7210,
      "Buses": 7211,
      "melons": 7212,
      "flyer": 7213,
      "deserted": 7214,
      "twenty": 7215,
      "peaks": 7216,
      "Only": 7217,
      "paddles": 7218,
      "register": 7219,
      "shampoo": 7220,
      "Vintage": 7221,
      "Full": 7222,
      "QU": 7223,
      "entree": 7224,
      "rotten": 7225,
      "decid": 7226,
      "brant": 7227,
      "biplane": 7228,
      "discu": 7229,
      "jack": 7230,
      "landed": 7231,
      "hudd": 7232,
      "balances": 7233,
      "Design": 7234,
      "Background": 7235,
      "wrinkly": 7236,
      "End": 7237,
      "maybe": 7238,
      "random": 7239,
      "stirring": 7240,
      "Pedestrian": 7241,
      "CLOUDS": 7242,
      "Washington": 7243,
      "casserole": 7244,
      "DARK": 7245,
      "Mu": 7246,
      "NI": 7247,
      "theme": 7248,
      "peaking": 7249,
      "domed": 7250,
      "fied": 7251,
      "unused": 7252,
      "streetlights": 7253,
      "chipping": 7254,
      "dresses": 7255,
      "READ": 7256,
      "gloomy": 7257,
      "motel": 7258,
      "feeds": 7259,
      "kerchief": 7260,
      "dropping": 7261,
      "suspenders": 7262,
      "salsa": 7263,
      "details": 7264,
      "raspberries": 7265,
      "cylindrical": 7266,
      "citrus": 7267,
      "freesbee": 7268,
      "Blanket": 7269,
      "lympic": 7270,
      "Am": 7271,
      "CAN": 7272,
      "CRO": 7273,
      "Fro": 7274,
      "Fed": 7275,
      "Mel": 7276,
      "mowed": 7277,
      "uous": 7278,
      "rather": 7279,
      "rodeo": 7280,
      "bulding": 7281,
      "because": 7282,
      "sidecar": 7283,
      "tired": 7284,
      "tible": 7285,
      "females": 7286,
      "outlets": 7287,
      "hydrants": 7288,
      "moustache": 7289,
      "knick": 7290,
      "marque": 7291,
      "TRAFF": 7292,
      "LIGHTS": 7293,
      "materials": 7294,
      "Stripes": 7295,
      "Towels": 7296,
      "CUR": 7297,
      "wandering": 7298,
      "surprised": 7299,
      "retaining": 7300,
      "TRAFFIC": 7301,
      "55": 7302,
      "El": 7303,
      "Maga": 7304,
      "Sau": 7305,
      "est": 7306,
      "slaw": 7307,
      "troll": 7308,
      "ingus": 7309,
      "lava": 7310,
      "times": 7311,
      "unlit": 7312,
      "noses": 7313,
      "nick": 7314,
      "INES": 7315,
      "keypad": 7316,
      "ARM": 7317,
      "padding": 7318,
      "Wide": 7319,
      "flipped": 7320,
      "bulld": 7321,
      "Steps": 7322,
      "FRIS": 7323,
      "blooming": 7324,
      "Paint": 7325,
      "happily": 7326,
      "Circular": 7327,
      "Fluffy": 7328,
      "cardigan": 7329,
      "33": 7330,
      "Fold": 7331,
      "Lad": 7332,
      "Rows": 7333,
      "VEN": 7334,
      "aging": 7335,
      "glow": 7336,
      "pha": 7337,
      "swoo": 7338,
      "reve": 7339,
      "teaching": 7340,
      "radishes": 7341,
      "oud": 7342,
      "seg": 7343,
      "adidas": 7344,
      "limes": 7345,
      "paving": 7346,
      "browns": 7347,
      "fell": 7348,
      "phy": 7349,
      "ques": 7350,
      "whip": 7351,
      "trip": 7352,
      "utter": 7353,
      "cordless": 7354,
      "borders": 7355,
      "spider": 7356,
      "focused": 7357,
      "Surfers": 7358,
      "PIE": 7359,
      "Floral": 7360,
      "clumps": 7361,
      "fronts": 7362,
      "fleece": 7363,
      "Cockpit": 7364,
      "Tod": 7365,
      "ah": 7366,
      "nas": 7367,
      "rods": 7368,
      "lobs": 7369,
      "doily": 7370,
      "potty": 7371,
      "shipping": 7372,
      "concentra": 7373,
      "cturer": 7374,
      "preserver": 7375,
      "situ": 7376,
      "easel": 7377,
      "ENG": 7378,
      "Ceiling": 7379,
      "River": 7380,
      "PUR": 7381,
      "diaper": 7382,
      "Bunches": 7383,
      "crisp": 7384,
      "removed": 7385,
      "Magaz": 7386,
      "FRISBE": 7387,
      "Toddler": 7388,
      "Is": 7389,
      "cis": 7390,
      "hump": 7391,
      "yummy": 7392,
      "anchor": 7393,
      "strung": 7394,
      "rito": 7395,
      "tact": 7396,
      "ford": 7397,
      "bushel": 7398,
      "strike": 7399,
      "appet": 7400,
      "social": 7401,
      "mount": 7402,
      "guiding": 7403,
      "lands": 7404,
      "bagels": 7405,
      "BOOK": 7406,
      "Dogs": 7407,
      "Post": 7408,
      "Deli": 7409,
      "ferris": 7410,
      "presents": 7411,
      "vored": 7412,
      "pallet": 7413,
      "student": 7414,
      "combination": 7415,
      "gourmet": 7416,
      "Faucet": 7417,
      "Avenue": 7418,
      "Hea": 7419,
      "KID": 7420,
      "Sam": 7421,
      "YOUNG": 7422,
      "fern": 7423,
      "job": 7424,
      "rays": 7425,
      "oured": 7426,
      "today": 7427,
      "fill": 7428,
      "outlined": 7429,
      "somebody": 7430,
      "bends": 7431,
      "scroll": 7432,
      "opens": 7433,
      "corners": 7434,
      "LEFT": 7435,
      "dino": 7436,
      "Airways": 7437,
      "Decker": 7438,
      "scrambled": 7439,
      "lonely": 7440,
      "Sandy": 7441,
      "warming": 7442,
      "LAPTOP": 7443,
      "NUMBER": 7444,
      "nighttime": 7445,
      "razor": 7446,
      "Brace": 7447,
      "Hy": 7448,
      "MOUN": 7449,
      "ebee": 7450,
      "anna": 7451,
      "andal": 7452,
      "pepsi": 7453,
      "moose": 7454,
      "mented": 7455,
      "darkened": 7456,
      "exiting": 7457,
      "arium": 7458,
      "halter": 7459,
      "burgers": 7460,
      "plugs": 7461,
      "wooly": 7462,
      "NOSE": 7463,
      "BMW": 7464,
      "Glo": 7465,
      "Mingus": 7466,
      "Sup": 7467,
      "yed": 7468,
      "telling": 7469,
      "ental": 7470,
      "ston": 7471,
      "taco": 7472,
      "grated": 7473,
      "sidelines": 7474,
      "shady": 7475,
      "parrots": 7476,
      "baseman": 7477,
      "parka": 7478,
      "baggy": 7479,
      "frica": 7480,
      "spacious": 7481,
      "texture": 7482,
      "drainage": 7483,
      "brushed": 7484,
      "TRACKS": 7485,
      "complex": 7486,
      "Screen": 7487,
      "processor": 7488,
      "Clump": 7489,
      "ruffled": 7490,
      "convention": 7491,
      "flatscreen": 7492,
      "upholstered": 7493,
      "Italian": 7494,
      "Mex": 7495,
      "Oven": 7496,
      "War": 7497,
      "avi": 7498,
      "cs": 7499,
      "tuce": 7500,
      "stit": 7501,
      "greeting": 7502,
      "unopened": 7503,
      "omelet": 7504,
      "fasten": 7505,
      "clocktower": 7506,
      "flavored": 7507,
      "drawings": 7508,
      "turban": 7509,
      "OFF": 7510,
      "mint": 7511,
      "stemmed": 7512,
      "OUGH": 7513,
      "flushing": 7514,
      "Cattle": 7515,
      "skaters": 7516,
      "Pale": 7517,
      "stud": 7518,
      "doesn": 7519,
      "groomed": 7520,
      "Sauce": 7521,
      "Canada": 7522,
      "Pepperoni": 7523,
      "skelet": 7524,
      "Rectangular": 7525,
      "tarmacked": 7526,
      "Area": 7527,
      "Dish": 7528,
      "HOT": 7529,
      "Ob": 7530,
      "UR": 7531,
      "lt": 7532,
      "region": 7533,
      "leopard": 7534,
      "tock": 7535,
      "poly": 7536,
      "poodle": 7537,
      "brownie": 7538,
      "smallest": 7539,
      "Anti": 7540,
      "higher": 7541,
      "dinning": 7542,
      "spaces": 7543,
      "sauces": 7544,
      "Potato": 7545,
      "Commercial": 7546,
      "Lettuce": 7547,
      "informational": 7548,
      "ornamental": 7549,
      "reigns": 7550,
      "remodeled": 7551,
      "deciduous": 7552,
      "Coun": 7553,
      "GAME": 7554,
      "HY": 7555,
      "Obama": 7556,
      "Papers": 7557,
      "Rug": 7558,
      "YS": 7559,
      "dandeli": 7560,
      "nch": 7561,
      "reli": 7562,
      "isle": 7563,
      "sex": 7564,
      "depart": 7565,
      "cops": 7566,
      "timer": 7567,
      "foal": 7568,
      "zzled": 7569,
      "soles": 7570,
      "equi": 7571,
      "takeoff": 7572,
      "ADE": 7573,
      "Hole": 7574,
      "indicate": 7575,
      "Bicycles": 7576,
      "packets": 7577,
      "nursing": 7578,
      "dolph": 7579,
      "provide": 7580,
      "dinosaur": 7581,
      "izing": 7582,
      "oat": 7583,
      "ined": 7584,
      "oncoming": 7585,
      "rivet": 7586,
      "share": 7587,
      "brownies": 7588,
      "cash": 7589,
      "streetlamp": 7590,
      "ridding": 7591,
      "sunlit": 7592,
      "Smaller": 7593,
      "REAR": 7594,
      "sloped": 7595,
      "pineapples": 7596,
      "hammock": 7597,
      "PAIN": 7598,
      "Stem": 7599,
      "WINDOWS": 7600,
      "roots": 7601,
      "MacBook": 7602,
      "caramel": 7603,
      "flannel": 7604,
      "bouncing": 7605,
      "prongs": 7606,
      "BANAN": 7607,
      "Container": 7608,
      "Break": 7609,
      "FRISBEE": 7610,
      "BL": 7611,
      "Baked": 7612,
      "Brand": 7613,
      "Ham": 7614,
      "Low": 7615,
      "Pub": 7616,
      "mist": 7617,
      "national": 7618,
      "sle": 7619,
      "wrest": 7620,
      "your": 7621,
      "yol": 7622,
      "inery": 7623,
      "robot": 7624,
      "locks": 7625,
      "tral": 7626,
      "poised": 7627,
      "pavi": 7628,
      "vibrant": 7629,
      "vacy": 7630,
      "sunflowers": 7631,
      "triangles": 7632,
      "IST": 7633,
      "cabinetry": 7634,
      "pregnant": 7635,
      "ishing": 7636,
      "cip": 7637,
      "scoop": 7638,
      "coloured": 7639,
      "kittens": 7640,
      "Refle": 7641,
      "Flags": 7642,
      "filming": 7643,
      "HANDLE": 7644,
      "ashtray": 7645,
      "Under": 7646,
      "Overhead": 7647,
      "currently": 7648,
      "employee": 7649,
      "BOTTLE": 7650,
      "BAS": 7651,
      "GET": 7652,
      "Per": 7653,
      "ancient": 7654,
      "reno": 7655,
      "ander": 7656,
      "rier": 7657,
      "lump": 7658,
      "cere": 7659,
      "lia": 7660,
      "trailing": 7661,
      "grave": 7662,
      "piping": 7663,
      "feathered": 7664,
      "thers": 7665,
      "least": 7666,
      "pinky": 7667,
      "midst": 7668,
      "Pepsi": 7669,
      "pillowcase": 7670,
      "jumped": 7671,
      "sectional": 7672,
      "seafood": 7673,
      "chainlink": 7674,
      "iness": 7675,
      "businesses": 7676,
      "tically": 7677,
      "scratches": 7678,
      "Beer": 7679,
      "Multicolored": 7680,
      "attention": 7681,
      "cubes": 7682,
      "oleum": 7683,
      "arriving": 7684,
      "crocheted": 7685,
      "daisy": 7686,
      "retriever": 7687,
      "Safety": 7688,
      "MOUNTAIN": 7689,
      "Clean": 7690,
      "FRI": 7691,
      "Image": 7692,
      "dan": 7693,
      "font": 7694,
      "iga": 7695,
      "onda": 7696,
      "reme": 7697,
      "ofa": 7698,
      "poll": 7699,
      "fier": 7700,
      "plantains": 7701,
      "mold": 7702,
      "surfboarder": 7703,
      "vies": 7704,
      "countertops": 7705,
      "furthest": 7706,
      "squared": 7707,
      "patient": 7708,
      "raining": 7709,
      "scenery": 7710,
      "crumble": 7711,
      "RACKET": 7712,
      "Girls": 7713,
      "bitten": 7714,
      "guardrail": 7715,
      "amese": 7716,
      "guests": 7717,
      "Curved": 7718,
      "flaps": 7719,
      "FIRE": 7720,
      "celebration": 7721,
      "hunched": 7722,
      "Fruits": 7723,
      "swirl": 7724,
      "Balcon": 7725,
      "quarter": 7726,
      "quarters": 7727,
      "central": 7728,
      "historic": 7729,
      "Caucasian": 7730,
      "recording": 7731,
      "huddled": 7732,
      "CROSS": 7733,
      "Fri": 7734,
      "Landing": 7735,
      "Mush": 7736,
      "Run": 7737,
      "You": 7738,
      "ply": 7739,
      "vans": 7740,
      "lef": 7741,
      "doc": 7742,
      "omet": 7743,
      "soaked": 7744,
      "stock": 7745,
      "linoleum": 7746,
      "sliver": 7747,
      "eachother": 7748,
      "english": 7749,
      "dragging": 7750,
      "squee": 7751,
      "swee": 7752,
      "decked": 7753,
      "TOGE": 7754,
      "Plaid": 7755,
      "CAP": 7756,
      "CLEAR": 7757,
      "SKIER": 7758,
      "Painted": 7759,
      "foundation": 7760,
      "Military": 7761,
      "marquee": 7762,
      "situated": 7763,
      "EW": 7764,
      "Nice": 7765,
      "dow": 7766,
      "latt": 7767,
      "hipster": 7768,
      "rafe": 7769,
      "tab": 7770,
      "cago": 7771,
      "trainer": 7772,
      "bedded": 7773,
      "overhanging": 7774,
      "pedals": 7775,
      "jagged": 7776,
      "visitors": 7777,
      "RESS": 7778,
      "spear": 7779,
      "ggle": 7780,
      "corded": 7781,
      "queen": 7782,
      "ironing": 7783,
      "Clothes": 7784,
      "Soap": 7785,
      "Planes": 7786,
      "interac": 7787,
      "Outside": 7788,
      "furnishing": 7789,
      "BRICK": 7790,
      "Potted": 7791,
      "Starbucks": 7792,
      "Seagull": 7793,
      "raspberry": 7794,
      "FLYING": 7795,
      "resemble": 7796,
      "jewelry": 7797,
      "TOGETHER": 7798,
      "Center": 7799,
      "Eight": 7800,
      "Hay": 7801,
      "PING": 7802,
      "Tag": 7803,
      "plo": 7804,
      "pouch": 7805,
      "slight": 7806,
      "vandal": 7807,
      "yon": 7808,
      "recre": 7809,
      "temper": 7810,
      "aling": 7811,
      "heating": 7812,
      "bered": 7813,
      "pered": 7814,
      "master": 7815,
      "bites": 7816,
      "pressing": 7817,
      "LAYING": 7818,
      "picked": 7819,
      "STU": 7820,
      "carded": 7821,
      "opposing": 7822,
      "machinery": 7823,
      "Lego": 7824,
      "wedges": 7825,
      "parents": 7826,
      "Backpack": 7827,
      "Horiz": 7828,
      "fryer": 7829,
      "mopeds": 7830,
      "CAKE": 7831,
      "filter": 7832,
      "DRANT": 7833,
      "McDon": 7834,
      "FOUR": 7835,
      "Not": 7836,
      "Salt": 7837,
      "Tie": 7838,
      "dou": 7839,
      "gad": 7840,
      "gone": 7841,
      "mult": 7842,
      "pum": 7843,
      "wise": 7844,
      "docks": 7845,
      "caged": 7846,
      "windmill": 7847,
      "partments": 7848,
      "metalic": 7849,
      "paned": 7850,
      "crock": 7851,
      "slim": 7852,
      "slides": 7853,
      "trict": 7854,
      "broth": 7855,
      "setup": 7856,
      "arian": 7857,
      "questri": 7858,
      "Stand": 7859,
      "Well": 7860,
      "privacy": 7861,
      "USB": 7862,
      "ddles": 7863,
      "receipt": 7864,
      "tofu": 7865,
      "instructions": 7866,
      "exercise": 7867,
      "lobster": 7868,
      "Bel": 7869,
      "agie": 7870,
      "pins": 7871,
      "iser": 7872,
      "ould": 7873,
      "signia": 7874,
      "facil": 7875,
      "bowtie": 7876,
      "flowery": 7877,
      "bandanna": 7878,
      "Silverware": 7879,
      "pupi": 7880,
      "mascot": 7881,
      "wildebee": 7882,
      "BUN": 7883,
      "gener": 7884,
      "smoothie": 7885,
      "maintain": 7886,
      "supply": 7887,
      "DISTAN": 7888,
      "spectacle": 7889,
      "Garbage": 7890,
      "WRIT": 7891,
      "notice": 7892,
      "Folded": 7893,
      "DISTANCE": 7894,
      "21": 7895,
      "29": 7896,
      "45": 7897,
      "COUN": 7898,
      "CTION": 7899,
      "Ket": 7900,
      "Net": 7901,
      "Rust": 7902,
      "hound": 7903,
      "iphone": 7904,
      "tangled": 7905,
      "department": 7906,
      "tale": 7907,
      "hovering": 7908,
      "hoagie": 7909,
      "adjust": 7910,
      "pia": 7911,
      "filing": 7912,
      "pamph": 7913,
      "tions": 7914,
      "striking": 7915,
      "darkness": 7916,
      "scular": 7917,
      "crop": 7918,
      "curves": 7919,
      "venti": 7920,
      "bookshelves": 7921,
      "spine": 7922,
      "coral": 7923,
      "patty": 7924,
      "shinning": 7925,
      "burrito": 7926,
      "shingled": 7927,
      "teria": 7928,
      "Airplanes": 7929,
      "hammer": 7930,
      "stucco": 7931,
      "Opened": 7932,
      "Hotel": 7933,
      "elevator": 7934,
      "Curtains": 7935,
      "ranch": 7936,
      "Bald": 7937,
      "Rusty": 7938,
      "Necklace": 7939,
      "historical": 7940,
      "title": 7941,
      "manufacturer": 7942,
      "interacting": 7943,
      "trolly": 7944,
      "skeleton": 7945,
      "HYDRANT": 7946,
      "equipped": 7947,
      "lattice": 7948,
      "CASE": 7949,
      "Duck": 7950,
      "PS": 7951,
      "RV": 7952,
      "ison": 7953,
      "atting": 7954,
      "lized": 7955,
      "baseline": 7956,
      "underbelly": 7957,
      "jaw": 7958,
      "stocked": 7959,
      "wording": 7960,
      "raincoat": 7961,
      "LAMP": 7962,
      "napping": 7963,
      "Doors": 7964,
      "trimming": 7965,
      "RAW": 7966,
      "mason": 7967,
      "Standing": 7968,
      "watched": 7969,
      "PARKING": 7970,
      "Exterior": 7971,
      "college": 7972,
      "ctural": 7973,
      "LEAVES": 7974,
      "crafts": 7975,
      "yolk": 7976,
      "vandalized": 7977,
      "NING": 7978,
      "dad": 7979,
      "een": 7980,
      "kra": 7981,
      "rson": 7982,
      "inser": 7983,
      "tol": 7984,
      "add": 7985,
      "pages": 7986,
      "goble": 7987,
      "contest": 7988,
      "helps": 7989,
      "pening": 7990,
      "nia": 7991,
      "shepherd": 7992,
      "metery": 7993,
      "autifully": 7994,
      "Electronic": 7995,
      "extends": 7996,
      "LOGO": 7997,
      "intense": 7998,
      "vinyl": 7999,
      "Umbrellas": 8000,
      "Portion": 8001,
      "futon": 8002,
      "Styrofoam": 8003,
      "Knee": 8004,
      "Antique": 8005,
      "Drain": 8006,
      "RY": 8007,
      "South": 8008,
      "cinder": 8009,
      "incolor": 8010,
      "ann": 8011,
      "recent": 8012,
      "rally": 8013,
      "boar": 8014,
      "lucent": 8015,
      "bees": 8016,
      "trak": 8017,
      "pace": 8018,
      "mama": 8019,
      "zel": 8020,
      "saw": 8021,
      "canister": 8022,
      "packaging": 8023,
      "engineer": 8024,
      "friz": 8025,
      "uniformed": 8026,
      "STO": 8027,
      "STIC": 8028,
      "policemen": 8029,
      "Carpet": 8030,
      "Poin": 8031,
      "protecting": 8032,
      "embedded": 8033,
      "notepad": 8034,
      "pinned": 8035,
      "Tiles": 8036,
      "sculptures": 8037,
      "studio": 8038,
      "muffler": 8039,
      "Doorway": 8040,
      "Ford": 8041,
      "SIDEWALK": 8042,
      "Curtain": 8043,
      "Footprints": 8044,
      "glider": 8045,
      "linens": 8046,
      "crochet": 8047,
      "grasping": 8048,
      "Suitcase": 8049,
      "knuck": 8050,
      "Breakfast": 8051,
      "35": 8052,
      "Dr": 8053,
      "Elder": 8054,
      "Ligh": 8055,
      "MADE": 8056,
      "Slee": 8057,
      "SES": 8058,
      "Whis": 8059,
      "clad": 8060,
      "pra": 8061,
      "isters": 8062,
      "rated": 8063,
      "sity": 8064,
      "coiled": 8065,
      "meals": 8066,
      "biking": 8067,
      "billow": 8068,
      "mettal": 8069,
      "give": 8070,
      "digging": 8071,
      "curing": 8072,
      "dale": 8073,
      "barb": 8074,
      "sheared": 8075,
      "judge": 8076,
      "maneu": 8077,
      "seem": 8078,
      "cushioned": 8079,
      "Refrigerator": 8080,
      "Comm": 8081,
      "Time": 8082,
      "SMILING": 8083,
      "void": 8084,
      "divided": 8085,
      "aquarium": 8086,
      "oddly": 8087,
      "touches": 8088,
      "cranes": 8089,
      "swoosh": 8090,
      "temperature": 8091,
      "facility": 8092,
      "99": 8093,
      "Bol": 8094,
      "Chim": 8095,
      "Dri": 8096,
      "IM": 8097,
      "Swe": 8098,
      "ases": 8099,
      "bil": 8100,
      "dairy": 8101,
      "gent": 8102,
      "nate": 8103,
      "poured": 8104,
      "tethered": 8105,
      "chy": 8106,
      "tick": 8107,
      "foi": 8108,
      "goo": 8109,
      "icons": 8110,
      "ictori": 8111,
      "perches": 8112,
      "amuse": 8113,
      "surfboarding": 8114,
      "sidewalks": 8115,
      "vated": 8116,
      "ported": 8117,
      "shinny": 8118,
      "forearm": 8119,
      "milking": 8120,
      "Interior": 8121,
      "PErson": 8122,
      "puppies": 8123,
      "Parti": 8124,
      "followed": 8125,
      "Shorts": 8126,
      "conveyer": 8127,
      "cafeteria": 8128,
      "Display": 8129,
      "Maroon": 8130,
      "fronds": 8131,
      "Assortment": 8132,
      "convertible": 8133,
      "Blinds": 8134,
      "source": 8135,
      "TOWER": 8136,
      "knacks": 8137,
      "Mostly": 8138,
      "incline": 8139,
      "mettalic": 8140,
      "DRESS": 8141,
      "LAND": 8142,
      "Paw": 8143,
      "Sub": 8144,
      "Tea": 8145,
      "act": 8146,
      "equestri": 8147,
      "western": 8148,
      "insignia": 8149,
      "silo": 8150,
      "securing": 8151,
      "lux": 8152,
      "buying": 8153,
      "cob": 8154,
      "cozy": 8155,
      "trench": 8156,
      "casted": 8157,
      "frown": 8158,
      "grounds": 8159,
      "ridged": 8160,
      "hello": 8161,
      "longer": 8162,
      "stoplights": 8163,
      "cresting": 8164,
      "pret": 8165,
      "garment": 8166,
      "active": 8167,
      "lenses": 8168,
      "spapers": 8169,
      "transporting": 8170,
      "Arrow": 8171,
      "prices": 8172,
      "Ornate": 8173,
      "silhouetted": 8174,
      "PURPLE": 8175,
      "furnishings": 8176,
      "70": 8177,
      "Dinner": 8178,
      "KER": 8179,
      "Main": 8180,
      "Nor": 8181,
      "San": 8182,
      "Sha": 8183,
      "SING": 8184,
      "SLE": 8185,
      "Wrink": 8186,
      "dles": 8187,
      "gears": 8188,
      "gins": 8189,
      "ifor": 8190,
      "scon": 8191,
      "would": 8192,
      "lapi": 8193,
      "outs": 8194,
      "coins": 8195,
      "cemetery": 8196,
      "best": 8197,
      "poop": 8198,
      "carni": 8199,
      "backward": 8200,
      "stead": 8201,
      "armband": 8202,
      "clearly": 8203,
      "compartments": 8204,
      "nament": 8205,
      "blown": 8206,
      "artist": 8207,
      "multicolor": 8208,
      "rugs": 8209,
      "clasp": 8210,
      "Giant": 8211,
      "pita": 8212,
      "protest": 8213,
      "canoes": 8214,
      "PLASTIC": 8215,
      "constructed": 8216,
      "taxis": 8217,
      "Entrance": 8218,
      "Label": 8219,
      "loveseat": 8220,
      "crouches": 8221,
      "spires": 8222,
      "brackets": 8223,
      "chaise": 8224,
      "bluish": 8225,
      "mechanism": 8226,
      "Shelf": 8227,
      "uneven": 8228,
      "VIEW": 8229,
      "Propeller": 8230,
      "embroidered": 8231,
      "itude": 8232,
      "Public": 8233,
      "BASKET": 8234,
      "interactive": 8235,
      "amusement": 8236,
      "ifornia": 8237,
      "King": 8238,
      "UT": 8239,
      "born": 8240,
      "ied": 8241,
      "era": 8242,
      "engra": 8243,
      "buy": 8244,
      "featu": 8245,
      "perked": 8246,
      "ams": 8247,
      "bookbag": 8248,
      "ubble": 8249,
      "muscular": 8250,
      "stract": 8251,
      "patrol": 8252,
      "speci": 8253,
      "kneels": 8254,
      "fingernails": 8255,
      "Dell": 8256,
      "TOM": 8257,
      "America": 8258,
      "teenagers": 8259,
      "alloween": 8260,
      "TIE": 8261,
      "pastel": 8262,
      "belongings": 8263,
      "flusher": 8264,
      "flapping": 8265,
      "Boxes": 8266,
      "channel": 8267,
      "ghest": 8268,
      "instruments": 8269,
      "Office": 8270,
      "Control": 8271,
      "Vertical": 8272,
      "illustration": 8273,
      "shooting": 8274,
      "lapidated": 8275,
      "carnival": 8276,
      "featured": 8277,
      "Glove": 8278,
      "SC": 8279,
      "Vol": 8280,
      "Wrist": 8281,
      "Wea": 8282,
      "Wings": 8283,
      "atic": 8284,
      "earphones": 8285,
      "pebble": 8286,
      "meets": 8287,
      "thatched": 8288,
      "gau": 8289,
      "goers": 8290,
      "contact": 8291,
      "staple": 8292,
      "shelve": 8293,
      "glossy": 8294,
      "further": 8295,
      "medal": 8296,
      "ishment": 8297,
      "preparation": 8298,
      "ESE": 8299,
      "scratch": 8300,
      "CARS": 8301,
      "ugly": 8302,
      "cigarettes": 8303,
      "fairly": 8304,
      "SHOE": 8305,
      "Mercedes": 8306,
      "buidling": 8307,
      "PIECE": 8308,
      "Heavy": 8309,
      "Balcony": 8310,
      "Drink": 8311,
      "Land": 8312,
      "Wal": 8313,
      "ax": 8314,
      "aim": 8315,
      "batch": 8316,
      "heap": 8317,
      "chubby": 8318,
      "buiding": 8319,
      "pavers": 8320,
      "unoccupied": 8321,
      "gazing": 8322,
      "pened": 8323,
      "saver": 8324,
      "venile": 8325,
      "packaged": 8326,
      "exotic": 8327,
      "pyra": 8328,
      "likely": 8329,
      "STI": 8330,
      "nets": 8331,
      "wildflowers": 8332,
      "ELF": 8333,
      "Trains": 8334,
      "function": 8335,
      "Word": 8336,
      "project": 8337,
      "everywhere": 8338,
      "keeper": 8339,
      "messenger": 8340,
      "BBQ": 8341,
      "Samsung": 8342,
      "Mexican": 8343,
      "Partially": 8344,
      "Ju": 8345,
      "MER": 8346,
      "POL": 8347,
      "Utility": 8348,
      "aid": 8349,
      "som": 8350,
      "lamin": 8351,
      "lover": 8352,
      "geomet": 8353,
      "beat": 8354,
      "standard": 8355,
      "trek": 8356,
      "windy": 8357,
      "bracing": 8358,
      "walked": 8359,
      "sala": 8360,
      "Ange": 8361,
      "opener": 8362,
      "cityscape": 8363,
      "creme": 8364,
      "calves": 8365,
      "navi": 8366,
      "platters": 8367,
      "microw": 8368,
      "tomatoe": 8369,
      "struction": 8370,
      "mature": 8371,
      "fitting": 8372,
      "WICH": 8373,
      "indian": 8374,
      "cracker": 8375,
      "customer": 8376,
      "SURFBOARD": 8377,
      "footed": 8378,
      "amidst": 8379,
      "Rainbow": 8380,
      "scallo": 8381,
      "numbered": 8382,
      "ceremon": 8383,
      "kraut": 8384,
      "Ge": 8385,
      "LY": 8386,
      "Olympic": 8387,
      "Pick": 8388,
      "PIL": 8389,
      "Walk": 8390,
      "affe": 8391,
      "rumpled": 8392,
      "itti": 8393,
      "skew": 8394,
      "reds": 8395,
      "bring": 8396,
      "ils": 8397,
      "memor": 8398,
      "frothy": 8399,
      "herb": 8400,
      "ffles": 8401,
      "steal": 8402,
      "typical": 8403,
      "tricycle": 8404,
      "footprint": 8405,
      "strainer": 8406,
      "packing": 8407,
      "sually": 8408,
      "macbook": 8409,
      "Skater": 8410,
      "spilled": 8411,
      "extension": 8412,
      "zipped": 8413,
      "ossi": 8414,
      "rippled": 8415,
      "rises": 8416,
      "Salad": 8417,
      "SANDWICH": 8418,
      "knack": 8419,
      "DAY": 8420,
      "ventilation": 8421,
      "foilage": 8422,
      "Gate": 8423,
      "SER": 8424,
      "dder": 8425,
      "dance": 8426,
      "osk": 8427,
      "pl": 8428,
      "infront": 8429,
      "tell": 8430,
      "isn": 8431,
      "raging": 8432,
      "tossed": 8433,
      "wil": 8434,
      "sells": 8435,
      "fox": 8436,
      "kiosk": 8437,
      "silk": 8438,
      "boxing": 8439,
      "shadowed": 8440,
      "comic": 8441,
      "duct": 8442,
      "tanks": 8443,
      "docking": 8444,
      "curbside": 8445,
      "craw": 8446,
      "Glazed": 8447,
      "Collar": 8448,
      "showroom": 8449,
      "marbled": 8450,
      "Leather": 8451,
      "News": 8452,
      "Prote": 8453,
      "Shelves": 8454,
      "Kitty": 8455,
      "tangerines": 8456,
      "Cardboard": 8457,
      "livestock": 8458,
      "appetiz": 8459,
      "COUNTER": 8460,
      "DU": 8461,
      "Driver": 8462,
      "EX": 8463,
      "Fen": 8464,
      "LINES": 8465,
      "NY": 8466,
      "bbling": 8467,
      "coffe": 8468,
      "fond": 8469,
      "hen": 8470,
      "pong": 8471,
      "slit": 8472,
      "slate": 8473,
      "thed": 8474,
      "repli": 8475,
      "andy": 8476,
      "sie": 8477,
      "rib": 8478,
      "ripped": 8479,
      "lop": 8480,
      "lopes": 8481,
      "itting": 8482,
      "cemented": 8483,
      "caused": 8484,
      "carn": 8485,
      "dson": 8486,
      "ason": 8487,
      "asure": 8488,
      "INSIDE": 8489,
      "creature": 8490,
      "spreading": 8491,
      "stationed": 8492,
      "squin": 8493,
      "ously": 8494,
      "fourth": 8495,
      "CKER": 8496,
      "matches": 8497,
      "MANY": 8498,
      "bordered": 8499,
      "Poster": 8500,
      "Chicago": 8501,
      "trotting": 8502,
      "graphics": 8503,
      "Holding": 8504,
      "film": 8505,
      "Burnt": 8506,
      "daisies": 8507,
      "Fancy": 8508,
      "CELL": 8509,
      "FLE": 8510,
      "Game": 8511,
      "Hear": 8512,
      "Ite": 8513,
      "Mickey": 8514,
      "Pave": 8515,
      "Tha": 8516,
      "dun": 8517,
      "foul": 8518,
      "sou": 8519,
      "suck": 8520,
      "wines": 8521,
      "theater": 8522,
      "ration": 8523,
      "hex": 8524,
      "bust": 8525,
      "vern": 8526,
      "figh": 8527,
      "backhand": 8528,
      "closer": 8529,
      "leaps": 8530,
      "icer": 8531,
      "sample": 8532,
      "chick": 8533,
      "hangers": 8534,
      "rugated": 8535,
      "stories": 8536,
      "rounding": 8537,
      "slipper": 8538,
      "throughout": 8539,
      "creating": 8540,
      "ultimate": 8541,
      "jutting": 8542,
      "sug": 8543,
      "HIGH": 8544,
      "mats": 8545,
      "climb": 8546,
      "whisker": 8547,
      "BUSH": 8548,
      "mobiles": 8549,
      "khakis": 8550,
      "CAB": 8551,
      "everyone": 8552,
      "cuffs": 8553,
      "oxen": 8554,
      "cident": 8555,
      "huahua": 8556,
      "tangerine": 8557,
      "quilted": 8558,
      "landscaping": 8559,
      "oatmeal": 8560,
      "replica": 8561,
      "Butter": 8562,
      "Couch": 8563,
      "Dunkin": 8564,
      "HOUSE": 8565,
      "Lush": 8566,
      "Spots": 8567,
      "Virgin": 8568,
      "african": 8569,
      "oars": 8570,
      "zo": 8571,
      "thi": 8572,
      "teries": 8573,
      "ladle": 8574,
      "enail": 8575,
      "buss": 8576,
      "veil": 8577,
      "veled": 8578,
      "filed": 8579,
      "paci": 8580,
      "passed": 8581,
      "unable": 8582,
      "means": 8583,
      "colorfully": 8584,
      "discarded": 8585,
      "Mane": 8586,
      "drant": 8587,
      "dips": 8588,
      "fireman": 8589,
      "imple": 8590,
      "sleepy": 8591,
      "stuffing": 8592,
      "meatballs": 8593,
      "minutes": 8594,
      "laden": 8595,
      "juvenile": 8596,
      "jogging": 8597,
      "centerpiece": 8598,
      "puddles": 8599,
      "newspapers": 8600,
      "settings": 8601,
      "translucent": 8602,
      "Pack": 8603,
      "sprayed": 8604,
      "Tiled": 8605,
      "RUN": 8606,
      "should": 8607,
      "pumpkins": 8608,
      "nestled": 8609,
      "foots": 8610,
      "hatchback": 8611,
      "strands": 8612,
      "FACE": 8613,
      "Doughnut": 8614,
      "California": 8615,
      "property": 8616,
      "graduation": 8617,
      "maintained": 8618,
      "Pavement": 8619,
      "As": 8620,
      "Ath": 8621,
      "Mes": 8622,
      "NER": 8623,
      "Other": 8624,
      "Pants": 8625,
      "PAS": 8626,
      "rs": 8627,
      "ssion": 8628,
      "reci": 8629,
      "alpha": 8630,
      "task": 8631,
      "lizard": 8632,
      "pired": 8633,
      "signature": 8634,
      "uncut": 8635,
      "reeze": 8636,
      "paperwork": 8637,
      "slip": 8638,
      "crease": 8639,
      "broch": 8640,
      "shears": 8641,
      "roofing": 8642,
      "battery": 8643,
      "halfway": 8644,
      "herded": 8645,
      "photography": 8646,
      "creamer": 8647,
      "crash": 8648,
      "casts": 8649,
      "freck": 8650,
      "slabs": 8651,
      "Individ": 8652,
      "scraper": 8653,
      "appearing": 8654,
      "custom": 8655,
      "Keys": 8656,
      "motocross": 8657,
      "Circle": 8658,
      "STRIPED": 8659,
      "Jeans": 8660,
      "thermos": 8661,
      "violet": 8662,
      "Melted": 8663,
      "equestrian": 8664,
      "28": 8665,
      "Fu": 8666,
      "School": 8667,
      "Spin": 8668,
      "Tat": 8669,
      "Track": 8670,
      "aisle": 8671,
      "clapping": 8672,
      "mn": 8673,
      "mun": 8674,
      "pure": 8675,
      "vets": 8676,
      "chase": 8677,
      "waffles": 8678,
      "vertically": 8679,
      "parchment": 8680,
      "waterfront": 8681,
      "bowel": 8682,
      "underground": 8683,
      "dilapidated": 8684,
      "drizzled": 8685,
      "program": 8686,
      "monk": 8687,
      "presiden": 8688,
      "decorate": 8689,
      "sloping": 8690,
      "marine": 8691,
      "Room": 8692,
      "RAIL": 8693,
      "Lemon": 8694,
      "Poles": 8695,
      "misty": 8696,
      "grooming": 8697,
      "Dig": 8698,
      "Jacket": 8699,
      "World": 8700,
      "Neon": 8701,
      "satin": 8702,
      "bundled": 8703,
      "Tomatoes": 8704,
      "String": 8705,
      "FedEx": 8706,
      "Obje": 8707,
      "igator": 8708,
      "Whiskers": 8709,
      "geometric": 8710,
      "Athle": 8711,
      "2nd": 8712,
      "37": 8713,
      "Cute": 8714,
      "Qu": 8715,
      "Screw": 8716,
      "cum": 8717,
      "hn": 8718,
      "mbling": 8719,
      "nown": 8720,
      "var": 8721,
      "onna": 8722,
      "rocket": 8723,
      "ita": 8724,
      "cole": 8725,
      "greasy": 8726,
      "dove": 8727,
      "poor": 8728,
      "came": 8729,
      "shift": 8730,
      "handwritten": 8731,
      "snowing": 8732,
      "headset": 8733,
      "rowboat": 8734,
      "rushing": 8735,
      "flavor": 8736,
      "canad": 8737,
      "barrow": 8738,
      "REST": 8739,
      "breads": 8740,
      "juicer": 8741,
      "ATION": 8742,
      "ALS": 8743,
      "beaks": 8744,
      "mitts": 8745,
      "SHOW": 8746,
      "deta": 8747,
      "peels": 8748,
      "travelers": 8749,
      "NECK": 8750,
      "FUL": 8751,
      "bonnet": 8752,
      "presenting": 8753,
      "cipating": 8754,
      "Elderly": 8755,
      "fighters": 8756,
      "Cast": 8757,
      "Ever": 8758,
      "Fans": 8759,
      "Swi": 8760,
      "ack": 8761,
      "pound": 8762,
      "punch": 8763,
      "wl": 8764,
      "invest": 8765,
      "teach": 8766,
      "lapen": 8767,
      "highest": 8768,
      "rat": 8769,
      "toenail": 8770,
      "sippy": 8771,
      "wiping": 8772,
      "lost": 8773,
      "bale": 8774,
      "tack": 8775,
      "tably": 8776,
      "airstrip": 8777,
      "windscreen": 8778,
      "handkerchief": 8779,
      "surboard": 8780,
      "dyed": 8781,
      "motorboat": 8782,
      "sanding": 8783,
      "unknown": 8784,
      "spind": 8785,
      "fours": 8786,
      "Silhou": 8787,
      "fitted": 8788,
      "saute": 8789,
      "valance": 8790,
      "AIRPLANE": 8791,
      "Reflections": 8792,
      "competitive": 8793,
      "Eyeglasses": 8794,
      "tightly": 8795,
      "antennae": 8796,
      "hund": 8797,
      "Advertising": 8798,
      "Jockey": 8799,
      "wonder": 8800,
      "cuddling": 8801,
      "WATCHING": 8802,
      "contraption": 8803,
      "bulldog": 8804,
      "Bracelet": 8805,
      "Ketchup": 8806,
      "microwaves": 8807,
      "alphabet": 8808,
      "38": 8809,
      "90": 8810,
      "Crust": 8811,
      "Farm": 8812,
      "Lid": 8813,
      "Lam": 8814,
      "Scen": 8815,
      "fading": 8816,
      "llo": 8817,
      "rested": 8818,
      "rais": 8819,
      "already": 8820,
      "defen": 8821,
      "beautifully": 8822,
      "begins": 8823,
      "pless": 8824,
      "pilots": 8825,
      "doctor": 8826,
      "neu": 8827,
      "personnel": 8828,
      "member": 8829,
      "movies": 8830,
      "mains": 8831,
      "sash": 8832,
      "ffod": 8833,
      "staff": 8834,
      "viewer": 8835,
      "pretending": 8836,
      "Something": 8837,
      "marching": 8838,
      "tured": 8839,
      "abstract": 8840,
      "smothered": 8841,
      "truss": 8842,
      "comfortably": 8843,
      "SEAT": 8844,
      "cliffs": 8845,
      "dorm": 8846,
      "buoys": 8847,
      "sparsely": 8848,
      "depicts": 8849,
      "converse": 8850,
      "checkerboard": 8851,
      "dolphin": 8852,
      "Chimney": 8853,
      "stapler": 8854,
      "Digital": 8855,
      "Cats": 8856,
      "Cracks": 8857,
      "Draw": 8858,
      "IMA": 8859,
      "KIN": 8860,
      "PES": 8861,
      "POT": 8862,
      "WINE": 8863,
      "breeze": 8864,
      "ech": 8865,
      "want": 8866,
      "lam": 8867,
      "rates": 8868,
      "tobo": 8869,
      "stur": 8870,
      "ormous": 8871,
      "wiring": 8872,
      "wok": 8873,
      "cep": 8874,
      "hams": 8875,
      "indent": 8876,
      "unity": 8877,
      "kicks": 8878,
      "oversized": 8879,
      "wea": 8880,
      "batteries": 8881,
      "lydes": 8882,
      "stabl": 8883,
      "curl": 8884,
      "triple": 8885,
      "framing": 8886,
      "flagpole": 8887,
      "knight": 8888,
      "tubes": 8889,
      "corpo": 8890,
      "statute": 8891,
      "tulip": 8892,
      "knocked": 8893,
      "accident": 8894,
      "enjoys": 8895,
      "melting": 8896,
      "Station": 8897,
      "Deep": 8898,
      "whisk": 8899,
      "allowed": 8900,
      "Arched": 8901,
      "follows": 8902,
      "operated": 8903,
      "jockeys": 8904,
      "bulletin": 8905,
      "Kitten": 8906,
      "Candle": 8907,
      "normal": 8908,
      "rapids": 8909,
      "FLAG": 8910,
      "CHEESE": 8911,
      "Counter": 8912,
      "pavilion": 8913,
      "pupil": 8914,
      "recently": 8915,
      "Commuter": 8916,
      "PILLOW": 8917,
      "fondant": 8918,
      "47": 8919,
      "Africa": 8920,
      "Down": 8921,
      "Gas": 8922,
      "Hu": 8923,
      "Il": 8924,
      "MON": 8925,
      "Pu": 8926,
      "Win": 8927,
      "aten": 8928,
      "establ": 8929,
      "ove": 8930,
      "temple": 8931,
      "sions": 8932,
      "bases": 8933,
      "fif": 8934,
      "cas": 8935,
      "backrest": 8936,
      "mainten": 8937,
      "district": 8938,
      "ascending": 8939,
      "longboard": 8940,
      "cropping": 8941,
      "liners": 8942,
      "former": 8943,
      "REFLE": 8944,
      "proces": 8945,
      "mouths": 8946,
      "ceding": 8947,
      "spell": 8948,
      "minent": 8949,
      "eared": 8950,
      "Bikes": 8951,
      "powerful": 8952,
      "butcher": 8953,
      "China": 8954,
      "Handles": 8955,
      "pullover": 8956,
      "hoofs": 8957,
      "clipboard": 8958,
      "states": 8959,
      "zippers": 8960,
      "relaxes": 8961,
      "Friends": 8962,
      "lefto": 8963,
      "sconce": 8964,
      "pyramid": 8965,
      "maintenance": 8966,
      "Halloween": 8967,
      "Must": 8968,
      "NK": 8969,
      "Rad": 8970,
      "VIS": 8971,
      "VED": 8972,
      "ailer": 8973,
      "vit": 8974,
      "ordin": 8975,
      "sell": 8976,
      "rious": 8977,
      "hoses": 8978,
      "winds": 8979,
      "mam": 8980,
      "antlers": 8981,
      "scrun": 8982,
      "german": 8983,
      "curls": 8984,
      "daffod": 8985,
      "provid": 8986,
      "spelling": 8987,
      "united": 8988,
      "Bags": 8989,
      "tufts": 8990,
      "workstation": 8991,
      "rugby": 8992,
      "straws": 8993,
      "crushed": 8994,
      "activity": 8995,
      "Stones": 8996,
      "LOTS": 8997,
      "Paved": 8998,
      "trophy": 8999,
      "KEY": 9000,
      "webbed": 9001,
      "mayonna": 9002,
      "Smooth": 9003,
      "APPLE": 9004,
      "BRIGHT": 9005,
      "supermarket": 9006,
      "Hazy": 9007,
      "frizbee": 9008,
      "hamster": 9009,
      "mayonnaise": 9010,
      "26": 9011,
      "27": 9012,
      "ATH": 9013,
      "ABLE": 9014,
      "Fer": 9015,
      "GLO": 9016,
      "Speak": 9017,
      "Vis": 9018,
      "bind": 9019,
      "bones": 9020,
      "kiss": 9021,
      "thor": 9022,
      "anima": 9023,
      "onds": 9024,
      "retail": 9025,
      "arching": 9026,
      "enth": 9027,
      "enormous": 9028,
      "eties": 9029,
      "alligator": 9030,
      "edged": 9031,
      "unt": 9032,
      "phant": 9033,
      "fol": 9034,
      "bic": 9035,
      "zzling": 9036,
      "icular": 9037,
      "novel": 9038,
      "overlooks": 9039,
      "sandles": 9040,
      "bows": 9041,
      "necklaces": 9042,
      "roofed": 9043,
      "express": 9044,
      "TEE": 9045,
      "meatball": 9046,
      "corrugated": 9047,
      "printing": 9048,
      "burg": 9049,
      "ORT": 9050,
      "kneepads": 9051,
      "Foam": 9052,
      "charred": 9053,
      "streaming": 9054,
      "glis": 9055,
      "organiz": 9056,
      "lounges": 9057,
      "attending": 9058,
      "glides": 9059,
      "peanuts": 9060,
      "TRUNK": 9061,
      "welcome": 9062,
      "DISPLAY": 9063,
      "pooh": 9064,
      "rippling": 9065,
      "inspecting": 9066,
      "swamp": 9067,
      "Delicious": 9068,
      "sexy": 9069,
      "McDonald": 9070,
      "Tattoo": 9071,
      "Bru": 9072,
      "BAND": 9073,
      "OTHER": 9074,
      "Sw": 9075,
      "SOF": 9076,
      "Winter": 9077,
      "binding": 9078,
      "pred": 9079,
      "insu": 9080,
      "rer": 9081,
      "ofy": 9082,
      "hide": 9083,
      "sequ": 9084,
      "owners": 9085,
      "grabs": 9086,
      "grains": 9087,
      "stree": 9088,
      "gious": 9089,
      "braces": 9090,
      "famous": 9091,
      "perpend": 9092,
      "conf": 9093,
      "tanned": 9094,
      "descending": 9095,
      "hanged": 9096,
      "wee": 9097,
      "vacation": 9098,
      "paperback": 9099,
      "porta": 9100,
      "bunched": 9101,
      "flake": 9102,
      "cellane": 9103,
      "writting": 9104,
      "spr": 9105,
      "vegetarian": 9106,
      "controlling": 9107,
      "except": 9108,
      "attach": 9109,
      "patrons": 9110,
      "speech": 9111,
      "riverbank": 9112,
      "duvet": 9113,
      "husky": 9114,
      "cartons": 9115,
      "Pots": 9116,
      "Coke": 9117,
      "charcoal": 9118,
      "piercing": 9119,
      "embank": 9120,
      "deserts": 9121,
      "Enter": 9122,
      "upperware": 9123,
      "zig": 9124,
      "LIVING": 9125,
      "Business": 9126,
      "hours": 9127,
      "Onions": 9128,
      "brocoli": 9129,
      "projection": 9130,
      "hunting": 9131,
      "hutch": 9132,
      "swirls": 9133,
      "Leafy": 9134,
      "Numeral": 9135,
      "DVDs": 9136,
      "rapid": 9137,
      "Horizontal": 9138,
      "wildebeest": 9139,
      "neutral": 9140,
      "sturdy": 9141,
      "perpendicular": 9142,
      "cellaneous": 9143,
      "Fish": 9144,
      "Lu": 9145,
      "OCE": 9146,
      "dors": 9147,
      "han": 9148,
      "rispy": 9149,
      "remains": 9150,
      "arp": 9151,
      "radish": 9152,
      "orchi": 9153,
      "sitt": 9154,
      "sible": 9155,
      "rode": 9156,
      "admir": 9157,
      "beast": 9158,
      "sideline": 9159,
      "peg": 9160,
      "omin": 9161,
      "snowpants": 9162,
      "mop": 9163,
      "mates": 9164,
      "gages": 9165,
      "skills": 9166,
      "oks": 9167,
      "istant": 9168,
      "highchair": 9169,
      "nylon": 9170,
      "varieties": 9171,
      "grilling": 9172,
      "OUTH": 9173,
      "accompan": 9174,
      "sweatpants": 9175,
      "LOOK": 9176,
      "Toyo": 9177,
      "tournament": 9178,
      "embracing": 9179,
      "taxiing": 9180,
      "discs": 9181,
      "sniffs": 9182,
      "masts": 9183,
      "SKIING": 9184,
      "popcorn": 9185,
      "OUTSIDE": 9186,
      "Vegetation": 9187,
      "Blond": 9188,
      "mechanical": 9189,
      "mittens": 9190,
      "Claus": 9191,
      "politan": 9192,
      "SUNGLASSES": 9193,
      "blossoms": 9194,
      "Fingers": 9195,
      "Protective": 9196,
      "Items": 9197,
      "Evergreen": 9198,
      "embankment": 9199,
      "admiring": 9200,
      "Toyota": 9201,
      "CER": 9202,
      "Que": 9203,
      "WET": 9204,
      "dant": 9205,
      "ditch": 9206,
      "wha": 9207,
      "xi": 9208,
      "inal": 9209,
      "retro": 9210,
      "stry": 9211,
      "wipes": 9212,
      "charm": 9213,
      "chord": 9214,
      "basic": 9215,
      "lily": 9216,
      "wagging": 9217,
      "trest": 9218,
      "ontally": 9219,
      "peoples": 9220,
      "leashes": 9221,
      "pensive": 9222,
      "jalapen": 9223,
      "jestic": 9224,
      "flashing": 9225,
      "vendors": 9226,
      "compe": 9227,
      "prominent": 9228,
      "cameraman": 9229,
      "leafed": 9230,
      "tomatic": 9231,
      "patri": 9232,
      "televisions": 9233,
      "Somebody": 9234,
      "seashore": 9235,
      "obser": 9236,
      "minimal": 9237,
      "enclosing": 9238,
      "ORS": 9239,
      "Restaurant": 9240,
      "marketplace": 9241,
      "eatting": 9242,
      "Moss": 9243,
      "spikes": 9244,
      "washroom": 9245,
      "parake": 9246,
      "Love": 9247,
      "ferns": 9248,
      "openings": 9249,
      "WAVE": 9250,
      "Plat": 9251,
      "panting": 9252,
      "Tables": 9253,
      "Solid": 9254,
      "ternal": 9255,
      "seasonings": 9256,
      "dividers": 9257,
      "consists": 9258,
      "reflectors": 9259,
      "garnished": 9260,
      "avocados": 9261,
      "Micro": 9262,
      "FLOWER": 9263,
      "sparkling": 9264,
      "waiian": 9265,
      "RENT": 9266,
      "stitched": 9267,
      "OCEAN": 9268,
      "Band": 9269,
      "Bears": 9270,
      "Cord": 9271,
      "SCRE": 9272,
      "TY": 9273,
      "Tru": 9274,
      "Vent": 9275,
      "Victori": 9276,
      "isley": 9277,
      "hift": 9278,
      "mango": 9279,
      "irie": 9280,
      "pill": 9281,
      "grind": 9282,
      "shading": 9283,
      "paying": 9284,
      "forman": 9285,
      "rafters": 9286,
      "chel": 9287,
      "lapse": 9288,
      "rugged": 9289,
      "diet": 9290,
      "ANIM": 9291,
      "combo": 9292,
      "passage": 9293,
      "livingroom": 9294,
      "dingy": 9295,
      "Boston": 9296,
      "aint": 9297,
      "swivel": 9298,
      "ATO": 9299,
      "appare": 9300,
      "milling": 9301,
      "CHO": 9302,
      "TERS": 9303,
      "communi": 9304,
      "primar": 9305,
      "frisby": 9306,
      "filthy": 9307,
      "Racket": 9308,
      "FORM": 9309,
      "COVE": 9310,
      "creepy": 9311,
      "bundt": 9312,
      "COUCH": 9313,
      "Rusted": 9314,
      "Patches": 9315,
      "biscuits": 9316,
      "perfectly": 9317,
      "BANANAS": 9318,
      "announ": 9319,
      "thicket": 9320,
      "Spinach": 9321,
      "ABO": 9322,
      "Bride": 9323,
      "Coo": 9324,
      "Dried": 9325,
      "Min": 9326,
      "SPE": 9327,
      "Tv": 9328,
      "WING": 9329,
      "aler": 9330,
      "dye": 9331,
      "ontop": 9332,
      "receding": 9333,
      "tells": 9334,
      "chatting": 9335,
      "rich": 9336,
      "host": 9337,
      "veins": 9338,
      "grin": 9339,
      "backing": 9340,
      "handmade": 9341,
      "motif": 9342,
      "performan": 9343,
      "And": 9344,
      "merch": 9345,
      "captured": 9346,
      "canisters": 9347,
      "globes": 9348,
      "cheeseburger": 9349,
      "Fris": 9350,
      "France": 9351,
      "auty": 9352,
      "Pige": 9353,
      "matic": 9354,
      "ponies": 9355,
      "tint": 9356,
      "Carrot": 9357,
      "ROOF": 9358,
      "usb": 9359,
      "anola": 9360,
      "tuna": 9361,
      "ankles": 9362,
      "Life": 9363,
      "article": 9364,
      "wastebasket": 9365,
      "FOOT": 9366,
      "peaceful": 9367,
      "plowed": 9368,
      "motocycle": 9369,
      "Austra": 9370,
      "brimmed": 9371,
      "thermostat": 9372,
[...]
